<unk>	0
<s>	0
</s>	0
▁t	-0
▁i	-1
▁th	-2
▁a	-3
▁w	-4
▁s	-5
re	-6
▁the	-7
in	-8
ou	-9
▁b	-10
▁l	-11
at	-12
▁h	-13
er	-14
▁m	-15
▁c	-16
▁o	-17
ing	-18
▁p	-19
▁to	-20
▁d	-21
▁f	-22
an	-23
is	-24
▁g	-25
ll	-26
on	-27
es	-28
▁is	-29
or	-30
▁it	-31
▁be	-32
en	-33
▁n	-34
ld	-35
▁an	-36
oo	-37
▁y	-38
▁this	-39
ke	-40
it	-41
ve	-42
▁that	-43
▁of	-44
▁wh	-45
ar	-46
▁in	-47
st	-48
ow	-49
▁you	-50
se	-51
▁li	-52
ould	-53
le	-54
ot	-55
▁and	-56
▁so	-57
ay	-58
▁e	-59
ic	-60
me	-61
ook	-62
▁look	-63
▁ha	-64
▁on	-65
ee	-66
▁like	-67
▁he	-68
ut	-69
ac	-70
▁are	-71
▁sh	-72
ver	-73
▁re	-74
▁they	-75
gh	-76
et	-77
ly	-78
▁r	-79
al	-80
▁u	-81
▁st	-82
▁j	-83
▁me	-84
▁we	-85
▁would	-86
ch	-87
▁what	-88
▁do	-89
▁for	-90
all	-91
ed	-92
id	-93
ust	-94
as	-95
ir	-96
op	-97
ure	-98
out	-99
ad	-100
▁my	-101
▁not	-102
▁co	-103
▁can	-104
▁lo	-105
ght	-106
▁looks	-107
ill	-108
▁k	-109
ul	-110
ith	-111
▁go	-112
▁just	-113
ro	-114
un	-115
th	-116
▁with	-117
▁pl	-118
ant	-119
ent	-120
▁have	-121
▁some	-122
ink	-123
ion	-124
▁at	-125
▁all	-126
▁ma	-127
▁love	-128
▁there	-129
very	-130
▁don	-131
ful	-132
ct	-133
ight	-134
▁could	-135
ally	-136
▁think	-137
ds	-138
im	-139
▁see	-140
▁mo	-141
▁tr	-142
▁if	-143
ur	-144
ood	-145
ter	-146
▁but	-147
ace	-148
ose	-149
▁pe	-150
uch	-151
▁ch	-152
one	-153
▁get	-154
▁ab	-155
▁out	-156
▁will	-157
der	-158
ab	-159
ce	-160
ain	-161
▁gre	-162
▁am	-163
▁as	-164
fe	-165
▁these	-166
▁wor	-167
ea	-168
ge	-169
▁she	-170
▁bet	-171
oun	-172
ers	-173
pp	-174
▁peop	-175
▁people	-176
now	-177
▁bu	-178
ie	-179
mp	-180
▁ne	-181
ri	-182
▁how	-183
▁was	-184
▁sp	-185
and	-186
▁want	-187
ice	-188
▁up	-189
▁bea	-190
▁one	-191
est	-192
▁ar	-193
▁those	-194
ere	-195
▁al	-196
▁ta	-197
▁ca	-198
▁beaut	-199
ild	-200
ind	-201
ess	-202
▁know	-203
▁really	-204
▁good	-205
▁no	-206
▁too	-207
▁them	-208
▁man	-209
ra	-210
ous	-211
ate	-212
▁should	-213
▁ti	-214
▁v	-215
▁won	-216
▁de	-217
ig	-218
▁ex	-219
her	-220
▁very	-221
ture	-222
▁about	-223
▁pic	-224
thing	-225
▁great	-226
▁any	-227
▁en	-228
▁your	-229
ite	-230
▁beauti	-231
▁col	-232
il	-233
res	-234
▁cl	-235
▁beautiful	-236
ish	-237
▁or	-238
▁here	-239
▁time	-240
▁day	-241
art	-242
▁nice	-243
king	-244
▁un	-245
▁gu	-246
▁nee	-247
..	-248
▁his	-249
▁place	-250
▁wonder	-251
▁make	-252
ack	-253
▁pro	-254
▁color	-255
ough	-256
▁fl	-257
▁picture	-258
▁her	-259
qu	-260
way	-261
▁fun	-262
▁bl	-263
▁why	-264
▁every	-265
kes	-266
▁sure	-267
▁going	-268
ive	-269
ope	-270
▁int	-271
ck	-272
▁way	-273
▁fro	-274
▁gr	-275
ine	-276
▁much	-277
our	-278
▁wat	-279
▁does	-280
ide	-281
▁who	-282
▁fee	-283
▁their	-284
▁ev	-285
am	-286
▁more	-287
▁from	-288
ard	-289
▁br	-290
▁po	-291
ound	-292
▁hope	-293
ast	-294
ation	-295
▁such	-296
▁con	-297
ings	-298
own	-299
um	-300
▁well	-301
ort	-302
▁better	-303
ore	-304
▁sc	-305
▁ro	-306
▁has	-307
▁when	-308
▁may	-309
▁feel	-310
ong	-311
us	-312
▁se	-313
▁build	-314
ting	-315
▁than	-316
▁ph	-317
ue	-318
▁bo	-319
ving	-320
ear	-321
▁let	-322
▁life	-323
ty	-324
▁need	-325
ree	-326
▁take	-327
ry	-328
▁its	-329
ity	-330
ist	-331
▁ho	-332
ies	-333
▁pre	-334
ag	-335
▁play	-336
▁sa	-337
▁even	-338
▁happ	-339
▁right	-340
▁makes	-341
▁car	-342
▁prob	-343
oto	-344
▁guy	-345
▁photo	-346
...	-347
be	-348
▁im	-349
ach	-350
ool	-351
▁sm	-352
use	-353
ass	-354
tle	-355
▁down	-356
om	-357
▁something	-358
▁him	-359
age	-360
ably	-361
▁looking	-362
▁oh	-363
ves	-364
▁water	-365
▁lit	-366
ren	-367
ff	-368
▁back	-369
ca	-370
▁by	-371
▁over	-372
▁probably	-373
ms	-374
ment	-375
▁wish	-376
▁never	-377
ell	-378
▁off	-379
▁many	-380
▁per	-381
▁su	-382
end	-383
▁pr	-384
ol	-385
▁where	-386
▁work	-387
oy	-388
pe	-389
▁yes	-390
▁sk	-391
▁art	-392
▁qu	-393
▁maybe	-394
▁must	-395
▁now	-396
▁little	-397
ign	-398
▁use	-399
▁flow	-400
▁kid	-401
lf	-402
ount	-403
▁did	-404
▁building	-405
ci	-406
hing	-407
▁old	-408
az	-409
▁ag	-410
▁someone	-411
ways	-412
ep	-413
ip	-414
ute	-415
▁yea	-416
▁pret	-417
▁only	-418
▁lot	-419
red	-420
▁part	-421
▁oth	-422
able	-423
▁rem	-424
ang	-425
▁light	-426
▁com	-427
▁best	-428
▁care	-429
▁thr	-430
▁doesn	-431
▁sw	-432
▁wa	-433
ade	-434
if	-435
ble	-436
▁into	-437
!!	-438
wn	-439
ress	-440
▁always	-441
▁aw	-442
▁des	-443
ile	-444
ious	-445
ark	-446
▁us	-447
▁exp	-448
▁world	-449
▁try	-450
▁say	-451
▁were	-452
▁our	-453
▁yeah	-454
▁act	-455
ull	-456
▁pretty	-457
act	-458
▁gl	-459
other	-460
ud	-461
▁dr	-462
ance	-463
▁le	-464
▁had	-465
ature	-466
▁pers	-467
▁cool	-468
▁amaz	-469
▁beca	-470
▁ad	-471
▁cr	-472
▁wow	-473
▁child	-474
▁around	-475
get	-476
▁because	-477
ath	-478
▁run	-479
▁things	-480
▁nothing	-481
mb	-482
ire	-483
▁sun	-484
▁amazing	-485
ady	-486
ts	-487
ick	-488
ame	-489
▁lea	-490
ap	-491
▁happy	-492
▁person	-493
▁other	-494
iew	-495
▁then	-496
ss	-497
▁dis	-498
▁mean	-499
inds	-500
alk	-501
▁af	-502
▁live	-503
▁put	-504
▁big	-505
▁fri	-506
ning	-507
▁view	-508
fect	-509
▁bel	-510
▁gir	-511
▁ever	-512
▁show	-513
▁bir	-514
▁comp	-515
▁seems	-516
▁long	-517
joy	-518
▁eat	-519
▁being	-520
▁enjoy	-521
▁thing	-522
dy	-523
ouse	-524
ually	-525
▁been	-526
▁jo	-527
▁cle	-528
▁doing	-529
ily	-530
self	-531
▁bad	-532
▁green	-533
▁hi	-534
▁app	-535
▁hel	-536
▁though	-537
▁hard	-538
▁fa	-539
▁tre	-540
▁everyone	-541
▁pain	-542
▁wait	-543
▁rel	-544
▁ke	-545
ather	-546
▁kind	-547
oom	-548
ple	-549
▁fall	-550
▁come	-551
▁under	-552
▁wear	-553
ked	-554
▁dog	-555
up	-556
▁girl	-557
▁imp	-558
▁real	-559
▁cat	-560
▁cre	-561
ome	-562
▁imag	-563
▁having	-564
▁might	-565
les	-566
iz	-567
▁wouldn	-568
ne	-569
ump	-570
▁tw	-571
▁home	-572
▁fam	-573
▁new	-574
ase	-575
gether	-576
▁through	-577
▁most	-578
ens	-579
▁together	-580
▁sit	-581
ash	-582
▁ey	-583
▁reminds	-584
day	-585
▁needs	-586
▁anything	-587
are	-588
▁isn	-589
▁str	-590
▁mat	-591
ieve	-592
▁perfect	-593
▁kids	-594
▁hate	-595
▁house	-596
orm	-597
erest	-598
▁stand	-599
▁nature	-600
▁find	-601
ence	-602
▁city	-603
oring	-604
side	-605
ands	-606
▁blue	-607
▁id	-608
▁help	-609
ated	-610
▁watch	-611
▁away	-612
▁actually	-613
▁lovely	-614
▁interest	-615
▁made	-616
▁flowers	-617
▁wom	-618
oth	-619
▁night	-620
imes	-621
▁tell	-622
fore	-623
▁cute	-624
▁att	-625
▁seen	-626
ary	-627
ert	-628
▁bab	-629
os	-630
▁bre	-631
uck	-632
▁believe	-633
int	-634
▁rock	-635
▁still	-636
als	-637
▁mus	-638
▁colors	-639
▁ok	-640
▁got	-641
▁before	-642
▁year	-643
▁sky	-644
cc	-645
ought	-646
▁own	-647
▁op	-648
iv	-649
▁trees	-650
urn	-651
mer	-652
ans	-653
▁two	-654
▁boring	-655
▁dri	-656
wh	-657
▁hor	-658
ak	-659
ical	-660
▁family	-661
▁keep	-662
ends	-663
ect	-664
▁te	-665
oney	-666
▁cra	-667
ise	-668
ft	-669
▁food	-670
▁la	-671
ating	-672
▁wonderful	-673
▁sign	-674
▁tree	-675
▁party	-676
▁bi	-677
ange	-678
na	-679
▁another	-680
▁after	-681
sh	-682
▁high	-683
▁imagine	-684
▁red	-685
▁plan	-686
arm	-687
▁anyone	-688
▁win	-689
▁mar	-690
▁everything	-691
▁used	-692
el	-693
▁wr	-694
cture	-695
alking	-696
▁count	-697
▁guess	-698
▁interesting	-699
xt	-700
vel	-701
▁fr	-702
▁cont	-703
▁game	-704
▁enough	-705
ax	-706
eet	-707
▁baby	-708
▁walk	-709
ng	-710
▁tra	-711
▁quite	-712
▁def	-713
▁boat	-714
▁give	-715
▁anim	-716
▁money	-717
▁face	-718
ph	-719
feren	-720
▁music	-721
▁design	-722
ountain	-723
▁jump	-724
pl	-725
▁again	-726
▁sl	-727
▁ug	-728
ks	-729
▁relax	-730
anc	-731
▁ple	-732
▁friends	-733
bo	-734
less	-735
▁clim	-736
ory	-737
▁bird	-738
ever	-739
▁stre	-740
sed	-741
▁sad	-742
▁able	-743
▁boy	-744
▁wind	-745
▁young	-746
ich	-747
▁white	-748
iss	-749
▁ser	-750
mber	-751
ions	-752
▁bus	-753
▁hair	-754
so	-755
▁pur	-756
▁ride	-757
▁dress	-758
▁guys	-759
▁climb	-760
▁ear	-761
▁hur	-762
▁dark	-763
▁reme	-764
▁flower	-765
▁wall	-766
▁scen	-767
▁road	-768
▁ugly	-769
▁eyes	-770
▁train	-771
▁vis	-772
irt	-773
▁el	-774
▁next	-775
▁head	-776
▁drink	-777
ifferen	-778
▁sim	-779
▁while	-780
▁peace	-781
▁set	-782
▁plant	-783
where	-784
▁fir	-785
▁differen	-786
▁pie	-787
▁beauty	-788
▁ob	-789
▁thought	-790
zy	-791
▁playing	-792
pt	-793
umb	-794
▁res	-795
▁top	-796
▁job	-797
▁defin	-798
▁getting	-799
▁exc	-800
▁arch	-801
oc	-802
▁dec	-803
dd	-804
ense	-805
ste	-806
▁fly	-807
▁close	-808
ny	-809
▁each	-810
▁snow	-811
▁start	-812
▁remember	-813
▁paint	-814
▁trying	-815
▁first	-816
▁cal	-817
▁end	-818
▁mountain	-819
ha	-820
▁che	-821
▁happen	-822
▁fire	-823
ib	-824
▁room	-825
ner	-826
aces	-827
▁same	-828
▁1	-829
▁lear	-830
▁mind	-831
▁clean	-832
▁country	-833
▁stat	-834
stand	-835
▁days	-836
▁image	-837
pect	-838
▁street	-839
▁ball	-840
▁also	-841
itely	-842
▁fore	-843
ream	-844
▁rid	-845
▁hold	-846
▁hum	-847
▁hand	-848
▁seem	-849
▁last	-850
air	-851
▁ter	-852
per	-853
ub	-854
ows	-855
▁definitely	-856
▁woman	-857
▁beach	-858
ross	-859
▁didn	-860
ness	-861
▁sing	-862
▁small	-863
▁different	-864
ken	-865
▁fine	-866
ors	-867
lic	-868
rible	-869
▁ind	-870
▁spe	-871
ons	-872
▁dont	-873
▁hot	-874
▁sur	-875
esome	-876
▁dang	-877
▁taking	-878
▁tea	-879
▁matter	-880
▁import	-881
▁di	-882
▁agree	-883
ition	-884
ents	-885
▁stay	-886
▁ready	-887
▁understand	-888
▁supp	-889
▁-	-890
oup	-891
▁die	-892
▁done	-893
ared	-894
▁fish	-895
▁awesome	-896
▁visit	-897
▁gi	-898
ible	-899
▁stop	-900
▁abs	-901
▁ty	-902
▁children	-903
ond	-904
▁archite	-905
▁read	-906
▁clou	-907
▁bit	-908
▁calm	-909
▁mon	-910
▁open	-911
▁stup	-912
ost	-913
▁else	-914
▁full	-915
▁myself	-916
▁years	-917
▁beh	-918
▁fast	-919
▁stupid	-920
▁important	-921
▁lets	-922
ket	-923
gra	-924
▁times	-925
▁wearing	-926
gr	-927
▁eas	-928
ont	-929
▁excit	-930
▁point	-931
▁making	-932
ug	-933
eri	-934
▁please	-935
▁fe	-936
▁break	-937
▁grow	-938
▁today	-939
▁piece	-940
▁lights	-941
▁idea	-942
▁rain	-943
▁rest	-944
▁soon	-945
▁danger	-946
ery	-947
▁bright	-948
eep	-949
▁black	-950
cial	-951
▁ent	-952
▁far	-953
▁dra	-954
oot	-955
▁crazy	-956
ction	-957
▁bike	-958
iness	-959
▁without	-960
▁air	-961
▁par	-962
▁cost	-963
▁hist	-964
▁thinking	-965
▁absol	-966
▁true	-967
▁hurt	-968
its	-969
▁absolute	-970
unch	-971
gy	-972
ude	-973
ord	-974
▁cou	-975
▁mag	-976
uff	-977
▁swim	-978
▁ref	-979
full	-980
ail	-981
▁town	-982
▁men	-983
▁sweet	-984
vent	-985
▁"	-986
ird	-987
▁learn	-988
▁conc	-989
▁land	-990
▁cut	-991
▁kill	-992
eal	-993
▁aren	-994
▁behind	-995
form	-996
▁safe	-997
▁clear	-998
ush	-999
▁dead	-1000
▁okay	-1001
▁fin	-1002
▁ele	-1003
▁sch	-1004
▁side	-1005
▁call	-1006
▁wast	-1007
▁dance	-1008
▁pa	-1009
eed	-1010
▁dou	-1011
▁sport	-1012
ines	-1013
▁somet	-1014
!!!	-1015
▁poor	-1016
vor	-1017
▁buildings	-1018
fully	-1019
wor	-1020
▁ins	-1021
▁class	-1022
te	-1023
str	-1024
▁cold	-1025
eric	-1026
▁dream	-1027
▁friend	-1028
▁area	-1029
▁group	-1030
ball	-1031
▁whole	-1032
▁sec	-1033
▁crow	-1034
ling	-1035
ved	-1036
ative	-1037
▁miss	-1038
▁rather	-1039
▁left	-1040
▁once	-1041
▁hat	-1042
▁taken	-1043
▁grand	-1044
oud	-1045
▁expl	-1046
▁race	-1047
▁architecture	-1048
▁glass	-1049
▁artist	-1050
▁inc	-1051
▁wrong	-1052
oul	-1053
▁pres	-1054
▁spend	-1055
▁dangerous	-1056
▁rep	-1057
▁team	-1058
▁took	-1059
▁inside	-1060
▁shirt	-1061
▁purple	-1062
▁sle	-1063
?!	-1064
▁grass	-1065
▁absolutely	-1066
▁god	-1067
bt	-1068
mor	-1069
▁heart	-1070
ations	-1071
▁acc	-1072
▁turn	-1073
▁seeing	-1074
▁cor	-1075
ertain	-1076
body	-1077
▁glad	-1078
ars	-1079
▁photogra	-1080
▁scene	-1081
ult	-1082
▁both	-1083
▁buy	-1084
▁lady	-1085
▁weird	-1086
▁which	-1087
▁bring	-1088
▁americ	-1089
iver	-1090
▁talking	-1091
▁cour	-1092
set	-1093
▁statue	-1094
ural	-1095
▁hands	-1096
▁dest	-1097
dle	-1098
▁flo	-1099
▁favor	-1100
▁mess	-1101
▁fut	-1102
▁moment	-1103
▁sy	-1104
ered	-1105
▁inv	-1106
▁sty	-1107
▁ah	-1108
▁peaceful	-1109
ven	-1110
▁prop	-1111
▁camer	-1112
▁cars	-1113
▁super	-1114
▁leave	-1115
▁park	-1116
iously	-1117
▁drive	-1118
▁least	-1119
▁dep	-1120
▁trip	-1121
▁pass	-1122
▁tot	-1123
▁cares	-1124
▁front	-1125
ither	-1126
▁soul	-1127
▁fo	-1128
▁doubt	-1129
▁sometimes	-1130
ower	-1131
▁worth	-1132
ock	-1133
▁hang	-1134
▁lol	-1135
▁whatever	-1136
▁favorite	-1137
▁event	-1138
▁earth	-1139
▁experi	-1140
▁pat	-1141
▁ac	-1142
ield	-1143
▁sense	-1144
▁smile	-1145
▁animals	-1146
▁brid	-1147
▁clouds	-1148
▁space	-1149
▁book	-1150
▁prot	-1151
ual	-1152
▁lost	-1153
uly	-1154
ster	-1155
ric	-1156
ressed	-1157
▁appear	-1158
▁future	-1159
▁yell	-1160
▁funny	-1161
fort	-1162
ix	-1163
ger	-1164
▁outside	-1165
ason	-1166
▁spea	-1167
▁birds	-1168
▁fight	-1169
▁din	-1170
▁comm	-1171
▁stuff	-1172
▁special	-1173
▁free	-1174
▁warm	-1175
ten	-1176
▁hit	-1177
ian	-1178
▁hon	-1179
li	-1180
▁crowd	-1181
que	-1182
geous	-1183
▁knows	-1184
▁poss	-1185
▁wedd	-1186
▁move	-1187
most	-1188
gs	-1189
▁2	-1190
▁rocks	-1191
▁scared	-1192
uin	-1193
▁pictures	-1194
▁standing	-1195
▁shot	-1196
▁alone	-1197
▁coming	-1198
▁watching	-1199
▁bar	-1200
▁tow	-1201
▁school	-1202
ground	-1203
ouch	-1204
▁scary	-1205
ied	-1206
ffic	-1207
▁loc	-1208
▁relaxing	-1209
ial	-1210
▁exact	-1211
▁places	-1212
▁outf	-1213
▁gra	-1214
▁sitting	-1215
▁near	-1216
▁deser	-1217
ize	-1218
▁coll	-1219
▁totally	-1220
▁gen	-1221
▁ext	-1222
aring	-1223
▁running	-1224
00	-1225
▁eng	-1226
▁throw	-1227
▁living	-1228
▁pay	-1229
▁deep	-1230
▁dumb	-1231
▁camera	-1232
ounds	-1233
med	-1234
▁almost	-1235
▁oce	-1236
led	-1237
not	-1238
▁ce	-1239
▁gor	-1240
▁ang	-1241
▁women	-1242
▁walking	-1243
▁animal	-1244
▁det	-1245
▁talk	-1246
▁thank	-1247
▁truly	-1248
▁terrible	-1249
▁wee	-1250
▁death	-1251
▁girls	-1252
▁sea	-1253
▁field	-1254
onna	-1255
▁thats	-1256
du	-1257
ety	-1258
▁sho	-1259
▁gets	-1260
▁couple	-1261
ject	-1262
▁history	-1263
key	-1264
▁dist	-1265
ulous	-1266
▁course	-1267
▁unt	-1268
▁hun	-1269
▁suppose	-1270
ince	-1271
illy	-1272
ier	-1273
▁gonna	-1274
▁comple	-1275
play	-1276
▁spot	-1277
▁band	-1278
▁list	-1279
▁working	-1280
▁gorgeous	-1281
ities	-1282
▁bridge	-1283
▁travel	-1284
▁eye	-1285
▁shouldn	-1286
▁form	-1287
▁hu	-1288
▁careful	-1289
▁past	-1290
▁cur	-1291
▁haha	-1292
▁wild	-1293
▁smart	-1294
▁takes	-1295
▁either	-1296
▁ocean	-1297
▁human	-1298
▁enjoying	-1299
raid	-1300
aps	-1301
een	-1302
▁cloth	-1303
br	-1304
▁lives	-1305
ying	-1306
▁rec	-1307
astic	-1308
mm	-1309
ready	-1310
▁waste	-1311
reci	-1312
▁wedding	-1313
??	-1314
▁already	-1315
▁touch	-1316
▁plane	-1317
▁kn	-1318
▁type	-1319
iling	-1320
ught	-1321
▁painting	-1322
ried	-1323
pture	-1324
erv	-1325
ilt	-1326
▁certain	-1327
▁afraid	-1328
▁danc	-1329
▁ruin	-1330
ention	-1331
▁wants	-1332
▁catch	-1333
▁mid	-1334
▁sleep	-1335
▁appreci	-1336
ards	-1337
▁less	-1338
▁experience	-1339
▁z	-1340
▁yellow	-1341
sel	-1342
▁waiting	-1343
oof	-1344
▁met	-1345
▁business	-1346
▁others	-1347
▁cons	-1348
▁couldn	-1349
▁mother	-1350
gin	-1351
▁es	-1352
▁advent	-1353
ates	-1354
ored	-1355
▁ann	-1356
▁sn	-1357
▁ra	-1358
▁style	-1359
▁yet	-1360
▁lar	-1361
▁horse	-1362
▁ground	-1363
▁few	-1364
▁hear	-1365
▁match	-1366
▁hour	-1367
▁emp	-1368
▁perform	-1369
▁loo	-1370
ique	-1371
▁proper	-1372
man	-1373
tern	-1374
▁lead	-1375
▁refle	-1376
▁leaves	-1377
▁chur	-1378
▁guit	-1379
▁memor	-1380
cape	-1381
▁power	-1382
▁sand	-1383
▁stru	-1384
▁conf	-1385
▁prof	-1386
ills	-1387
▁char	-1388
▁church	-1389
▁background	-1390
ls	-1391
▁body	-1392
▁ve	-1393
▁until	-1394
uring	-1395
ime	-1396
▁weather	-1397
ces	-1398
ular	-1399
vers	-1400
▁wan	-1401
▁line	-1402
▁went	-1403
▁feeling	-1404
▁lands	-1405
hood	-1406
▁tall	-1407
cle	-1408
▁min	-1409
▁sounds	-1410
▁bro	-1411
stead	-1412
▁mine	-1413
llow	-1414
▁pop	-1415
▁silly	-1416
▁instead	-1417
ane	-1418
▁stud	-1419
▁plants	-1420
▁display	-1421
▁exactly	-1422
▁easy	-1423
ract	-1424
▁dogs	-1425
ensive	-1426
▁sunset	-1427
▁window	-1428
▁yourself	-1429
▁ask	-1430
▁respect	-1431
▁vac	-1432
▁since	-1433
▁shade	-1434
▁simple	-1435
haps	-1436
irty	-1437
▁pink	-1438
▁change	-1439
▁da	-1440
▁perhaps	-1441
▁foot	-1442
▁repres	-1443
▁destro	-1444
▁nat	-1445
▁obv	-1446
▁cannot	-1447
▁built	-1448
▁clothes	-1449
▁structure	-1450
▁cul	-1451
▁reg	-1452
▁burn	-1453
▁squ	-1454
▁door	-1455
selves	-1456
▁meaning	-1457
ants	-1458
▁listen	-1459
come	-1460
▁mountains	-1461
lish	-1462
▁guitar	-1463
▁table	-1464
ific	-1465
▁ton	-1466
▁photograph	-1467
▁dude	-1468
ses	-1469
ater	-1470
ah	-1471
▁pet	-1472
▁lake	-1473
▁forever	-1474
light	-1475
▁chill	-1476
▁dirty	-1477
alth	-1478
▁fit	-1479
oon	-1480
▁anyway	-1481
▁lighting	-1482
cept	-1483
▁war	-1484
▁gard	-1485
▁ugh	-1486
▁fair	-1487
▁cant	-1488
▁base	-1489
▁strong	-1490
▁culture	-1491
▁adventure	-1492
▁sort	-1493
▁shows	-1494
▁exciting	-1495
ues	-1496
▁roll	-1497
▁mov	-1498
▁sum	-1499
ality	-1500
▁stra	-1501
▁creature	-1502
▁cause	-1503
▁draw	-1504
▁attention	-1505
▁annoy	-1506
▁step	-1507
ones	-1508
▁dinner	-1509
▁pos	-1510
▁sor	-1511
ats	-1512
▁flag	-1513
▁path	-1514
▁sha	-1515
ted	-1516
ider	-1517
ank	-1518
▁clearly	-1519
▁om	-1520
▁decor	-1521
od	-1522
▁woo	-1523
▁bunch	-1524
▁bot	-1525
▁ice	-1526
▁ones	-1527
▁river	-1528
▁middle	-1529
▁somewhere	-1530
▁cent	-1531
ia	-1532
ming	-1533
▁lad	-1534
com	-1535
▁em	-1536
....	-1537
unk	-1538
▁means	-1539
▁sell	-1540
▁wanted	-1541
▁luck	-1542
iet	-1543
airs	-1544
▁mee	-1545
▁fant	-1546
▁week	-1547
▁ador	-1548
▁meet	-1549
▁doll	-1550
▁stage	-1551
▁appreciate	-1552
▁delic	-1553
▁outfit	-1554
ma	-1555
▁post	-1556
▁brings	-1557
▁reason	-1558
ys	-1559
▁honest	-1560
▁vacation	-1561
▁env	-1562
▁mor	-1563
amp	-1564
▁goes	-1565
▁shoes	-1566
▁bas	-1567
▁med	-1568
ancy	-1569
rop	-1570
▁hid	-1571
▁eating	-1572
▁proble	-1573
▁excited	-1574
▁foc	-1575
▁har	-1576
cess	-1577
▁pick	-1578
▁remind	-1579
ters	-1580
▁spr	-1581
▁ener	-1582
▁norm	-1583
▁hide	-1584
▁shad	-1585
▁sorry	-1586
▁garden	-1587
▁natural	-1588
▁.	-1589
ident	-1590
▁wood	-1591
▁hey	-1592
▁speak	-1593
▁destroy	-1594
▁wanna	-1595
ames	-1596
▁tal	-1597
▁dressed	-1598
igh	-1599
▁pot	-1600
ination	-1601
▁wi	-1602
▁aff	-1603
▁lay	-1604
▁self	-1605
co	-1606
▁along	-1607
▁large	-1608
▁incred	-1609
▁add	-1610
▁dancing	-1611
gg	-1612
▁ap	-1613
▁mot	-1614
ashion	-1615
▁memories	-1616
ze	-1617
▁joy	-1618
▁join	-1619
▁said	-1620
▁shop	-1621
▁tech	-1622
▁pract	-1623
▁proud	-1624
fortable	-1625
iny	-1626
▁express	-1627
▁protect	-1628
▁nerv	-1629
▁date	-1630
▁unique	-1631
▁adorable	-1632
▁insp	-1633
▁taste	-1634
▁health	-1635
▁name	-1636
▁found	-1637
▁holding	-1638
▁fig	-1639
▁bra	-1640
▁cry	-1641
▁paren	-1642
▁themselves	-1643
▁cast	-1644
▁nervous	-1645
▁omg	-1646
▁feet	-1647
▁spir	-1648
▁sight	-1649
ically	-1650
▁quiet	-1651
▁bur	-1652
▁huge	-1653
▁sub	-1654
▁alive	-1655
▁fancy	-1656
▁horrible	-1657
aur	-1658
ipp	-1659
work	-1660
▁fact	-1661
ta	-1662
▁came	-1663
ison	-1664
▁appears	-1665
stru	-1666
▁gives	-1667
▁riding	-1668
▁expensive	-1669
do	-1670
▁fre	-1671
▁fake	-1672
▁box	-1673
▁fill	-1674
▁lots	-1675
ional	-1676
▁tear	-1677
▁hours	-1678
▁disg	-1679
▁forest	-1680
▁mil	-1681
▁moder	-1682
▁across	-1683
▁awful	-1684
ping	-1685
▁mom	-1686
▁entire	-1687
ins	-1688
ume	-1689
▁cree	-1690
▁fashion	-1691
ics	-1692
itch	-1693
▁deserve	-1694
▁mod	-1695
▁beer	-1696
▁meeting	-1697
▁pu	-1698
▁short	-1699
▁driving	-1700
▁comes	-1701
▁cho	-1702
▁pub	-1703
iting	-1704
▁stick	-1705
▁indeed	-1706
▁duck	-1707
usting	-1708
▁during	-1709
row	-1710
▁says	-1711
▁sick	-1712
▁obviously	-1713
▁cele	-1714
▁chr	-1715
▁modern	-1716
py	-1717
▁age	-1718
▁ed	-1719
▁sme	-1720
▁gold	-1721
▁celebr	-1722
▁aww	-1723
▁afford	-1724
▁pol	-1725
▁summer	-1726
▁movie	-1727
▁american	-1728
▁gent	-1729
▁likely	-1730
ps	-1731
iculous	-1732
▁,	-1733
▁boys	-1734
▁landscape	-1735
gan	-1736
ized	-1737
▁strange	-1738
fer	-1739
▁supposed	-1740
▁beat	-1741
▁sound	-1742
▁techn	-1743
ret	-1744
▁smell	-1745
▁christ	-1746
▁normal	-1747
▁photos	-1748
▁fantastic	-1749
▁deal	-1750
mon	-1751
▁breath	-1752
▁talent	-1753
▁wasn	-1754
▁empty	-1755
▁present	-1756
bb	-1757
▁fix	-1758
▁soo	-1759
▁numb	-1760
▁three	-1761
▁energy	-1762
▁straight	-1763
▁complete	-1764
▁kne	-1765
▁cook	-1766
▁song	-1767
▁store	-1768
▁figure	-1769
▁rom	-1770
▁maj	-1771
▁saying	-1772
▁leg	-1773
▁star	-1774
▁save	-1775
▁tour	-1776
▁pleas	-1777
▁ali	-1778
▁typ	-1779
▁skin	-1780
aper	-1781
▁windows	-1782
▁finish	-1783
▁comment	-1784
▁anywhere	-1785
ately	-1786
▁hopefully	-1787
my	-1788
og	-1789
ped	-1790
ward	-1791
▁worry	-1792
▁sports	-1793
▁concert	-1794
▁serious	-1795
ument	-1796
▁camp	-1797
▁opin	-1798
land	-1799
▁meal	-1800
▁envir	-1801
▁tired	-1802
▁trash	-1803
▁saw	-1804
▁flying	-1805
▁fil	-1806
▁anci	-1807
ead	-1808
ient	-1809
▁cats	-1810
▁fell	-1811
▁annoying	-1812
met	-1813
▁mis	-1814
▁lines	-1815
▁orange	-1816
used	-1817
▁track	-1818
▁scenery	-1819
ned	-1820
ilar	-1821
▁teach	-1822
▁trans	-1823
▁thanks	-1824
▁allow	-1825
▁detail	-1826
▁looked	-1827
ween	-1828
▁mach	-1829
cially	-1830
▁against	-1831
▁blur	-1832
▁gener	-1833
▁loved	-1834
▁certainly	-1835
▁mill	-1836
▁truck	-1837
▁explore	-1838
fl	-1839
mas	-1840
▁hill	-1841
▁inter	-1842
▁produ	-1843
▁profess	-1844
bor	-1845
▁ancient	-1846
▁ridiculous	-1847
unity	-1848
▁steal	-1849
▁ladies	-1850
▁dull	-1851
▁pull	-1852
▁between	-1853
more	-1854
▁compan	-1855
▁follow	-1856
▁public	-1857
▁everywhere	-1858
▁words	-1859
ney	-1860
room	-1861
▁cross	-1862
▁disgusting	-1863
onment	-1864
▁check	-1865
▁neigh	-1866
ined	-1867
rect	-1868
▁wine	-1869
▁america	-1870
▁attract	-1871
▁colorful	-1872
▁slow	-1873
▁brown	-1874
▁glasses	-1875
ey	-1876
ugh	-1877
▁symb	-1878
▁environment	-1879
▁floor	-1880
▁dad	-1881
▁whee	-1882
▁trad	-1883
gant	-1884
▁roof	-1885
▁scul	-1886
▁plain	-1887
▁storm	-1888
▁colour	-1889
▁parents	-1890
▁pattern	-1891
▁hea	-1892
▁coff	-1893
▁symbol	-1894
▁dam	-1895
▁apart	-1896
▁exist	-1897
▁setting	-1898
ibly	-1899
▁eff	-1900
▁tower	-1901
▁anymore	-1902
▁represent	-1903
▁bat	-1904
istic	-1905
▁laugh	-1906
pecially	-1907
▁neat	-1908
▁scre	-1909
▁sere	-1910
▁reflect	-1911
▁cup	-1912
▁suit	-1913
▁effort	-1914
▁perfectly	-1915
ience	-1916
▁push	-1917
▁stri	-1918
▁worst	-1919
ber	-1920
▁bed	-1921
▁loud	-1922
▁state	-1923
line	-1924
▁opp	-1925
▁brick	-1926
▁possible	-1927
ove	-1928
▁create	-1929
iot	-1930
▁especially	-1931
outh	-1932
▁drop	-1933
▁prov	-1934
▁stun	-1935
▁whoever	-1936
▁smo	-1937
antic	-1938
▁pool	-1939
▁chance	-1940
▁seriously	-1941
con	-1942
▁knew	-1943
ict	-1944
▁using	-1945
▁sol	-1946
▁angle	-1947
▁phone	-1948
▁vi	-1949
▁fab	-1950
▁christmas	-1951
▁rich	-1952
▁feels	-1953
▁giant	-1954
▁gross	-1955
rif	-1956
▁fan	-1957
▁begin	-1958
▁lose	-1959
▁delicious	-1960
▁bal	-1961
▁castle	-1962
▁drinking	-1963
cy	-1964
▁morning	-1965
▁smiling	-1966
▁support	-1967
▁incredible	-1968
em	-1969
▁coffee	-1970
▁gentle	-1971
▁prefer	-1972
▁boats	-1973
▁contra	-1974
▁dev	-1975
▁crash	-1976
▁model	-1977
▁become	-1978
▁ill	-1979
▁dirt	-1980
▁hell	-1981
▁games	-1982
iti	-1983
let	-1984
▁gh	-1985
works	-1986
▁gar	-1987
▁lone	-1988
ering	-1989
▁farm	-1990
ror	-1991
▁emot	-1992
▁magn	-1993
▁ship	-1994
▁bigger	-1995
▁bother	-1996
▁fra	-1997
▁mad	-1998
▁moon	-1999
▁walls	-2000
▁easily	-2001
▁player	-2002
ply	-2003
▁ago	-2004
▁opinion	-2005
ppy	-2006
▁blood	-2007
▁spirit	-2008
▁correct	-2009
right	-2010
iff	-2011
▁story	-2012
▁works	-2013
▁eh	-2014
▁gone	-2015
▁focus	-2016
▁himself	-2017
▁fireworks	-2018
▁chea	-2019
▁succ	-2020
▁often	-2021
▁gather	-2022
▁singing	-2023
resh	-2024
roll	-2025
▁quick	-2026
▁nobody	-2027
▁restaur	-2028
ility	-2029
riend	-2030
▁impress	-2031
hip	-2032
ries	-2033
▁tast	-2034
▁wife	-2035
▁capture	-2036
pr	-2037
▁forget	-2038
▁happened	-2039
ches	-2040
▁ass	-2041
▁ret	-2042
itive	-2043
▁extra	-2044
▁magical	-2045
orn	-2046
▁cir	-2047
▁tonight	-2048
▁pri	-2049
▁val	-2050
▁ir	-2051
▁tur	-2052
▁simply	-2053
omp	-2054
ugg	-2055
ices	-2056
▁romantic	-2057
ogy	-2058
▁purp	-2059
▁elegant	-2060
▁quality	-2061
ired	-2062
▁av	-2063
like	-2064
board	-2065
▁died	-2066
▁constru	-2067
pher	-2068
▁winter	-2069
▁brave	-2070
▁happens	-2071
▁order	-2072
▁majest	-2073
▁someday	-2074
▁sculpture	-2075
acing	-2076
▁histor	-2077
▁problem	-2078
▁jac	-2079
▁waves	-2080
▁swimming	-2081
▁vib	-2082
▁tiny	-2083
▁honestly	-2084
!!!!	-2085
▁ris	-2086
▁mood	-2087
▁poll	-2088
▁chang	-2089
▁collect	-2090
▁creative	-2091
▁na	-2092
▁cake	-2093
▁grab	-2094
▁idiot	-2095
▁organ	-2096
▁woods	-2097
▁single	-2098
▁childhood	-2099
▁oo	-2100
▁soci	-2101
▁paper	-2102
▁amount	-2103
▁number	-2104
▁company	-2105
▁gif	-2106
▁odd	-2107
ments	-2108
▁half	-2109
▁fence	-2110
▁fresh	-2111
▁humans	-2112
▁heard	-2113
▁level	-2114
▁tradition	-2115
▁gosh	-2116
▁socc	-2117
▁yard	-2118
▁reach	-2119
emp	-2120
ding	-2121
ooth	-2122
▁bag	-2123
▁hmm	-2124
ution	-2125
▁calming	-2126
ced	-2127
ited	-2128
▁jud	-2129
▁soccer	-2130
▁traffic	-2131
▁moving	-2132
ship	-2133
▁aut	-2134
▁spl	-2135
▁butter	-2136
angu	-2137
▁hop	-2138
▁hanging	-2139
ese	-2140
▁pen	-2141
▁busy	-2142
▁shape	-2143
▁worried	-2144
▁stunning	-2145
▁soft	-2146
▁langu	-2147
▁bath	-2148
▁passion	-2149
▁contrast	-2150
▁magnific	-2151
got	-2152
▁signs	-2153
port	-2154
ology	-2155
▁ahead	-2156
▁brain	-2157
▁designed	-2158
cise	-2159
ides	-2160
▁bare	-2161
▁bott	-2162
▁hike	-2163
▁port	-2164
▁bikes	-2165
▁ghost	-2166
▁stone	-2167
▁planet	-2168
app	-2169
▁trou	-2170
▁clos	-2171
▁charac	-2172
▁bow	-2173
▁dry	-2174
▁dare	-2175
▁spee	-2176
▁belong	-2177
▁second	-2178
▁society	-2179
eas	-2180
▁saf	-2181
▁son	-2182
▁quest	-2183
▁chick	-2184
▁growing	-2185
▁married	-2186
by	-2187
▁photographer	-2188
▁blow	-2189
▁outdo	-2190
▁climbing	-2191
▁learning	-2192
▁restaurant	-2193
▁equ	-2194
▁trust	-2195
▁compet	-2196
▁football	-2197
▁cover	-2198
reme	-2199
▁drum	-2200
▁worked	-2201
▁!	-2202
▁rob	-2203
▁ways	-2204
▁lucky	-2205
▁meant	-2206
▁neighbor	-2207
asc	-2208
ending	-2209
▁creepy	-2210
▁consider	-2211
no	-2212
uss	-2213
▁fear	-2214
▁healthy	-2215
▁los	-2216
round	-2217
▁streets	-2218
▁thoughts	-2219
ism	-2220
▁wet	-2221
▁purpose	-2222
▁ban	-2223
▁obs	-2224
▁sna	-2225
▁pose	-2226
▁faster	-2227
▁costume	-2228
▁creatures	-2229
▁kit	-2230
▁falls	-2231
▁concer	-2232
▁father	-2233
▁cheap	-2234
▁tried	-2235
▁depress	-2236
▁magnificent	-2237
cious	-2238
▁dreams	-2239
▁intell	-2240
▁alright	-2241
ator	-2242
▁bug	-2243
▁fol	-2244
iring	-2245
▁smash	-2246
▁giving	-2247
▁loving	-2248
▁mic	-2249
▁kick	-2250
▁likes	-2251
▁ben	-2252
▁poison	-2253
▁comput	-2254
▁chair	-2255
▁serene	-2256
▁location	-2257
▁100	-2258
ouses	-2259
▁exce	-2260
▁project	-2261
uit	-2262
aking	-2263
▁graff	-2264
▁speed	-2265
▁within	-2266
▁ya	-2267
▁adm	-2268
▁ori	-2269
▁lonely	-2270
▁extreme	-2271
att	-2272
ivity	-2273
▁diffic	-2274
▁filled	-2275
▁surv	-2276
▁performance	-2277
aged	-2278
▁bud	-2279
▁swe	-2280
▁spent	-2281
▁staring	-2282
ob	-2283
▁happening	-2284
ging	-2285
icer	-2286
▁muse	-2287
▁bored	-2288
▁later	-2289
ivid	-2290
▁fur	-2291
▁dire	-2292
▁drag	-2293
ughter	-2294
▁babies	-2295
ists	-2296
▁neck	-2297
▁motor	-2298
▁blurry	-2299
▁hiding	-2300
▁surround	-2301
▁10	-2302
arch	-2303
▁greatest	-2304
▁falling	-2305
▁language	-2306
ky	-2307
to	-2308
uts	-2309
▁er	-2310
▁mir	-2311
▁excell	-2312
kets	-2313
▁metal	-2314
▁tough	-2315
▁longer	-2316
▁players	-2317
▁graffiti	-2318
▁hug	-2319
ories	-2320
▁loves	-2321
▁forgot	-2322
ges	-2323
▁ga	-2324
▁ten	-2325
▁prep	-2326
▁mouth	-2327
ational	-2328
▁monkey	-2329
▁sal	-2330
▁share	-2331
▁stairs	-2332
▁handsome	-2333
nic	-2334
iant	-2335
iday	-2336
▁low	-2337
▁temp	-2338
▁faces	-2339
▁protest	-2340
▁difficult	-2341
vy	-2342
rant	-2343
rest	-2344
▁disc	-2345
▁carry	-2346
▁majestic	-2347
▁comfortable	-2348
▁vo	-2349
▁legs	-2350
▁youth	-2351
▁evening	-2352
▁capt	-2353
▁fool	-2354
▁hung	-2355
▁pants	-2356
▁jumping	-2357
▁awe	-2358
▁sat	-2359
▁tor	-2360
▁surf	-2361
though	-2362
▁shark	-2363
▁trail	-2364
▁screen	-2365
▁classic	-2366
▁museum	-2367
▁safety	-2368
▁smooth	-2369
▁finally	-2370
hic	-2371
ires	-2372
▁drown	-2373
▁caught	-2374
▁fabulous	-2375
▁practice	-2376
▁somebody	-2377
▁mur	-2378
▁attack	-2379
▁desert	-2380
▁professional	-2381
▁knock	-2382
▁older	-2383
▁spring	-2384
▁tun	-2385
▁feed	-2386
▁choice	-2387
▁height	-2388
▁excellent	-2389
▁ef	-2390
▁bugs	-2391
▁arr	-2392
▁mel	-2393
▁vehic	-2394
▁everyday	-2395
ury	-2396
ised	-2397
▁toy	-2398
▁needed	-2399
▁ski	-2400
▁hotel	-2401
▁jacket	-2402
▁partic	-2403
▁painted	-2404
▁completely	-2405
ains	-2406
▁reading	-2407
▁baseball	-2408
▁technology	-2409
ages	-2410
utes	-2411
▁bear	-2412
▁unif	-2413
▁started	-2414
▁although	-2415
▁feelings	-2416
fall	-2417
pped	-2418
▁cow	-2419
▁elect	-2420
▁trouble	-2421
▁king	-2422
▁kiss	-2423
▁books	-2424
▁putting	-2425
▁dre	-2426
▁occ	-2427
ealous	-2428
▁called	-2429
▁effect	-2430
▁houses	-2431
▁reflection	-2432
ask	-2433
irts	-2434
▁dish	-2435
▁relig	-2436
▁stuck	-2437
▁thous	-2438
▁univer	-2439
oose	-2440
▁boo	-2441
▁exer	-2442
▁jour	-2443
▁lunch	-2444
▁skill	-2445
▁horses	-2446
▁artistic	-2447
aced	-2448
▁product	-2449
▁nap	-2450
▁cart	-2451
yal	-2452
ckey	-2453
iven	-2454
▁ach	-2455
▁cliff	-2456
▁conne	-2457
▁showing	-2458
▁community	-2459
▁fing	-2460
▁instr	-2461
▁season	-2462
▁jealous	-2463
▁brill	-2464
io	-2465
ote	-2466
aint	-2467
▁emb	-2468
▁lif	-2469
asure	-2470
▁late	-2471
▁center	-2472
▁secret	-2473
▁machine	-2474
▁interested	-2475
▁neighborhood	-2476
▁dig	-2477
▁sca	-2478
inary	-2479
▁kinda	-2480
ium	-2481
old	-2482
▁pal	-2483
vered	-2484
uation	-2485
▁board	-2486
▁office	-2487
▁origin	-2488
▁artwork	-2489
iles	-2490
ival	-2491
ners	-2492
▁told	-2493
▁charm	-2494
▁shame	-2495
▁thinks	-2496
▁parking	-2497
▁inst	-2498
▁lived	-2499
▁attractive	-2500
go	-2501
▁angry	-2502
den	-2503
▁heck	-2504
▁haven	-2505
▁speech	-2506
▁similar	-2507
ake	-2508
fly	-2509
▁bey	-2510
▁mix	-2511
▁birth	-2512
▁engine	-2513
▁notice	-2514
▁object	-2515
▁parade	-2516
▁scream	-2517
▁aud	-2518
▁uncom	-2519
▁possibly	-2520
▁poo	-2521
▁picnic	-2522
▁created	-2523
▁million	-2524
▁success	-2525
cl	-2526
ians	-2527
quis	-2528
▁inf	-2529
ining	-2530
▁wash	-2531
▁skills	-2532
iled	-2533
▁spec	-2534
▁local	-2535
▁nicer	-2536
▁surpr	-2537
▁wheel	-2538
▁beyond	-2539
▁hockey	-2540
▁fountain	-2541
ops	-2542
▁wel	-2543
▁evil	-2544
▁pump	-2545
▁whats	-2546
▁inform	-2547
here	-2548
time	-2549
▁fest	-2550
▁size	-2551
▁sold	-2552
▁above	-2553
▁drunk	-2554
▁steps	-2555
▁unless	-2556
▁waters	-2557
▁gloom	-2558
▁pieces	-2559
▁terrif	-2560
▁relaxed	-2561
▁intellig	-2562
▁hol	-2563
ising	-2564
▁site	-2565
▁expect	-2566
▁daughter	-2567
rib	-2568
▁sail	-2569
▁vibrant	-2570
▁impressive	-2571
▁'	-2572
oid	-2573
▁bun	-2574
▁cond	-2575
▁magic	-2576
▁shoot	-2577
pective	-2578
▁outfits	-2579
▁gathering	-2580
icy	-2581
▁uns	-2582
▁cheer	-2583
▁common	-2584
▁drinks	-2585
▁handle	-2586
▁sil	-2587
▁goal	-2588
▁round	-2589
▁shall	-2590
▁drawing	-2591
▁depressing	-2592
!?	-2593
▁inj	-2594
▁examp	-2595
▁intric	-2596
▁statues	-2597
▁minutes	-2598
▁character	-2599
▁listening	-2600
▁uncomfortable	-2601
he	-2602
ained	-2603
▁four	-2604
▁marvel	-2605
▁master	-2606
▁played	-2607
ior	-2608
oss	-2609
▁cream	-2610
▁closer	-2611
▁contro	-2612
▁20	-2613
umes	-2614
ledge	-2615
▁hole	-2616
▁prom	-2617
▁exquis	-2618
de	-2619
eeth	-2620
▁ant	-2621
cking	-2622
▁dear	-2623
▁fort	-2624
ential	-2625
cks	-2626
etic	-2627
vice	-2628
▁cap	-2629
▁happiness	-2630
▁hes	-2631
▁bottom	-2632
▁hungry	-2633
▁waterfall	-2634
cles	-2635
yard	-2636
▁row	-2637
▁bene	-2638
▁upset	-2639
▁convers	-2640
▁crowded	-2641
▁talented	-2642
▁architect	-2643
▁ath	-2644
▁key	-2645
▁gift	-2646
▁rainb	-2647
▁tomor	-2648
stem	-2649
▁dar	-2650
▁bran	-2651
▁stare	-2652
▁corner	-2653
▁holiday	-2654
aster	-2655
▁edge	-2656
▁given	-2657
▁gloomy	-2658
▁journey	-2659
▁computer	-2660
▁tomorrow	-2661
erve	-2662
▁harm	-2663
▁resp	-2664
▁grace	-2665
▁accomp	-2666
▁square	-2667
▁represents	-2668
gu	-2669
▁fat	-2670
▁rip	-2671
▁flat	-2672
▁poin	-2673
▁requ	-2674
▁colle	-2675
▁fruit	-2676
▁ideas	-2677
▁except	-2678
▁stroll	-2679
▁brilliant	-2680
mat	-2681
bage	-2682
▁laz	-2683
▁grey	-2684
▁rail	-2685
▁rese	-2686
▁doesnt	-2687
▁trains	-2688
▁fishing	-2689
▁accident	-2690
walk	-2691
▁skate	-2692
▁itself	-2693
▁example	-2694
▁properly	-2695
sc	-2696
enty	-2697
▁gun	-2698
▁tie	-2699
▁famil	-2700
▁broken	-2701
▁survive	-2702
▁perspective	-2703
▁ste	-2704
▁ange	-2705
▁bull	-2706
▁case	-2707
▁miles	-2708
▁owner	-2709
▁rough	-2710
▁attend	-2711
▁basket	-2712
▁usually	-2713
▁question	-2714
▁entertain	-2715
▁;	-2716
rent	-2717
▁club	-2718
▁mass	-2719
▁none	-2720
▁dying	-2721
▁plate	-2722
▁opport	-2723
▁allowed	-2724
▁college	-2725
▁realize	-2726
▁photography	-2727
▁?	-2728
duc	-2729
▁rust	-2730
▁bland	-2731
▁girlf	-2732
▁smoke	-2733
▁contin	-2734
▁exercise	-2735
▁exquisite	-2736
olate	-2737
verage	-2738
▁block	-2739
▁impro	-2740
▁simpl	-2741
▁missing	-2742
▁deserves	-2743
▁knowledge	-2744
▁construction	-2745
assed	-2746
▁liter	-2747
▁write	-2748
▁necess	-2749
▁matters	-2750
▁distance	-2751
▁mud	-2752
▁paid	-2753
▁rand	-2754
▁candy	-2755
gn	-2756
▁complex	-2757
▁darkness	-2758
mos	-2759
izing	-2760
▁shap	-2761
▁clown	-2762
▁gas	-2763
▁pan	-2764
▁invol	-2765
▁sunny	-2766
ided	-2767
iest	-2768
iment	-2769
ister	-2770
▁month	-2771
▁garbage	-2772
▁je	-2773
▁tv	-2774
oods	-2775
▁pill	-2776
▁helps	-2777
▁honey	-2778
▁control	-2779
▁typical	-2780
▁pleasant	-2781
▁ge	-2782
band	-2783
▁...	-2784
▁scare	-2785
▁birthday	-2786
▁costumes	-2787
▁friendly	-2788
▁goodness	-2789
▁spending	-2790
aw	-2791
ton	-2792
oons	-2793
▁shut	-2794
coming	-2795
▁blast	-2796
▁vehicle	-2797
▁accomplish	-2798
▁imagination	-2799
▁educ	-2800
▁test	-2801
▁toys	-2802
▁blind	-2803
▁random	-2804
▁surely	-2805
pa	-2806
sy	-2807
dies	-2808
ital	-2809
▁dem	-2810
ances	-2811
ision	-2812
▁clot	-2813
▁royal	-2814
▁famous	-2815
▁intense	-2816
▁outdoors	-2817
▁bree	-2818
▁comb	-2819
▁grad	-2820
▁lame	-2821
▁word	-2822
▁robot	-2823
▁social	-2824
▁delight	-2825
▁herself	-2826
▁presentation	-2827
gle	-2828
▁cy	-2829
acks	-2830
using	-2831
▁haun	-2832
▁joke	-2833
▁float	-2834
▁worse	-2835
▁bottle	-2836
▁chairs	-2837
▁helmet	-2838
▁achieve	-2839
▁precious	-2840
cer	-2841
▁cas	-2842
▁pon	-2843
▁sens	-2844
▁vide	-2845
▁early	-2846
▁motorcy	-2847
▁thankful	-2848
mes	-2849
cing	-2850
vern	-2851
▁fog	-2852
velop	-2853
▁mist	-2854
▁rude	-2855
▁weight	-2856
▁chicken	-2857
▁stories	-2858
▁clothing	-2859
▁butterfly	-2860
▁traditional	-2861
ching	-2862
ooked	-2863
ashing	-2864
▁medit	-2865
▁swing	-2866
▁flight	-2867
▁hiking	-2868
▁materi	-2869
▁message	-2870
▁expression	-2871
▁girlfriend	-2872
▁fel	-2873
aging	-2874
ropri	-2875
▁bush	-2876
▁hills	-2877
▁shadow	-2878
pes	-2879
cted	-2880
ether	-2881
▁bite	-2882
▁cere	-2883
▁coat	-2884
▁dump	-2885
▁upon	-2886
▁among	-2887
▁types	-2888
inating	-2889
▁problems	-2890
gth	-2891
urb	-2892
▁ble	-2893
▁due	-2894
▁hus	-2895
▁map	-2896
▁hall	-2897
▁shirts	-2898
▁tracks	-2899
▁contemp	-2900
vert	-2901
▁rub	-2902
▁atmos	-2903
▁spect	-2904
▁stars	-2905
▁racing	-2906
▁covered	-2907
ged	-2908
ooms	-2909
▁huh	-2910
▁rad	-2911
▁var	-2912
▁viol	-2913
▁alien	-2914
▁driver	-2915
▁spider	-2916
▁dollars	-2917
▁forward	-2918
▁writing	-2919
bit	-2920
cut	-2921
▁fairy	-2922
▁heaven	-2923
▁smiles	-2924
▁grandma	-2925
▁towards	-2926
▁extremely	-2927
▁transport	-2928
erm	-2929
orms	-2930
▁goof	-2931
▁gray	-2932
▁prin	-2933
▁eleph	-2934
▁price	-2935
▁roads	-2936
▁comfort	-2937
▁nowhere	-2938
ux	-2939
ina	-2940
oes	-2941
look	-2942
▁fasc	-2943
▁vill	-2944
▁monster	-2945
▁regular	-2946
▁universe	-2947
house	-2948
▁rare	-2949
▁bloom	-2950
▁brother	-2951
▁brought	-2952
▁helping	-2953
▁intricate	-2954
▁sto	-2955
itude	-2956
phere	-2957
▁arms	-2958
▁cult	-2959
▁aliens	-2960
▁planes	-2961
▁police	-2962
▁individ	-2963
▁original	-2964
▁positive	-2965
ns	-2966
min	-2967
une	-2968
▁lazy	-2969
▁govern	-2970
▁nicely	-2971
▁photosh	-2972
eak	-2973
anqu	-2974
ables	-2975
▁meat	-2976
▁hidden	-2977
▁weekend	-2978
▁audience	-2979
▁speaking	-2980
taking	-2981
▁cloud	-2982
▁funer	-2983
▁everybody	-2984
men	-2985
▁keeps	-2986
▁stands	-2987
▁whether	-2988
▁eventually	-2989
ek	-2990
ades	-2991
▁arm	-2992
▁nah	-2993
▁bell	-2994
▁desc	-2995
▁inse	-2996
▁nose	-2997
ipping	-2998
itions	-2999
▁gotta	-3000
▁appeal	-3001
▁myster	-3002
▁atmosphere	-3003
▁hy	-3004
iced	-3005
place	-3006
▁glor	-3007
ocking	-3008
▁airpl	-3009
▁maint	-3010
▁teeth	-3011
▁yours	-3012
▁island	-3013
▁market	-3014
▁however	-3015
▁telling	-3016
▁situation	-3017
ald	-3018
gen	-3019
▁ur	-3020
▁jer	-3021
▁ran	-3022
▁leaf	-3023
▁punch	-3024
▁plenty	-3025
▁conversation	-3026
ips	-3027
▁ahh	-3028
▁hats	-3029
▁scar	-3030
▁flags	-3031
▁serve	-3032
▁higher	-3033
▁average	-3034
▁willing	-3035
▁pointless	-3036
gest	-3037
▁gave	-3038
▁avoid	-3039
▁compl	-3040
▁trick	-3041
▁wings	-3042
▁tranqu	-3043
▁younger	-3044
▁soothing	-3045
gl	-3046
osed	-3047
ummy	-3048
ured	-3049
▁jet	-3050
▁kinds	-3051
osition	-3052
▁rainbow	-3053
dles	-3054
▁div	-3055
▁yep	-3056
▁desp	-3057
▁shown	-3058
▁bodies	-3059
▁singer	-3060
▁husband	-3061
▁parties	-3062
▁personal	-3063
▁training	-3064
▁rul	-3065
acked	-3066
ences	-3067
▁seat	-3068
▁inspiring	-3069
sw	-3070
???	-3071
mmet	-3072
▁eur	-3073
▁gear	-3074
▁wont	-3075
▁dragon	-3076
▁species	-3077
▁charming	-3078
▁planning	-3079
▁intelligent	-3080
▁anx	-3081
▁ord	-3082
▁tic	-3083
▁wal	-3084
▁tatt	-3085
▁buddy	-3086
▁ducks	-3087
▁puppy	-3088
▁winning	-3089
▁floating	-3090
▁government	-3091
wise	-3092
▁dive	-3093
▁pond	-3094
▁known	-3095
▁treat	-3096
▁video	-3097
▁highly	-3098
▁confused	-3099
hh	-3100
ays	-3101
riage	-3102
▁bomb	-3103
▁five	-3104
▁gate	-3105
▁hund	-3106
▁asian	-3107
▁breeze	-3108
▁paying	-3109
▁literally	-3110
--	-3111
ru	-3112
arp	-3113
rit	-3114
▁ju	-3115
allen	-3116
▁sent	-3117
▁writ	-3118
▁craft	-3119
▁equip	-3120
▁folks	-3121
▁freed	-3122
▁killed	-3123
▁quaint	-3124
▁develop	-3125
▁position	-3126
▁historical	-3127
rage	-3128
ished	-3129
▁bill	-3130
▁lawn	-3131
▁wise	-3132
▁based	-3133
▁below	-3134
▁bride	-3135
▁slide	-3136
▁ceiling	-3137
▁challen	-3138
▁funeral	-3139
▁collection	-3140
▁exh	-3141
▁incl	-3142
▁news	-3143
▁grate	-3144
▁ruins	-3145
▁decent	-3146
▁europe	-3147
▁tattoo	-3148
▁moments	-3149
kin	-3150
the	-3151
▁wo	-3152
▁cru	-3153
▁kept	-3154
▁basic	-3155
▁bless	-3156
▁heads	-3157
▁study	-3158
▁bought	-3159
▁direct	-3160
▁ceremon	-3161
▁glorious	-3162
▁monument	-3163
▁crush	-3164
▁cheese	-3165
▁stress	-3166
▁property	-3167
▁marvelous	-3168
▁information	-3169
nt	-3170
▁champ	-3171
▁judge	-3172
▁kitch	-3173
▁insect	-3174
▁system	-3175
▁details	-3176
▁equipment	-3177
▁difference	-3178
▁competition	-3179
bs	-3180
ads	-3181
hol	-3182
nam	-3183
cket	-3184
mbre	-3185
▁ast	-3186
▁bee	-3187
▁choc	-3188
▁myst	-3189
▁pure	-3190
▁bricks	-3191
▁choose	-3192
▁symmet	-3193
▁freedom	-3194
▁subject	-3195
▁treasure	-3196
ker	-3197
ule	-3198
pper	-3199
▁fle	-3200
▁iss	-3201
▁jap	-3202
▁remin	-3203
▁sidewalk	-3204
▁potential	-3205
otic	-3206
what	-3207
▁wra	-3208
▁cher	-3209
▁felt	-3210
▁pray	-3211
▁priv	-3212
▁brand	-3213
ilities	-3214
▁service	-3215
▁backyard	-3216
▁bathroom	-3217
▁opt	-3218
▁fail	-3219
▁risk	-3220
acking	-3221
▁honor	-3222
▁mirror	-3223
▁hideous	-3224
▁provide	-3225
▁contempl	-3226
▁relation	-3227
▁ger	-3228
▁vol	-3229
iding	-3230
pping	-3231
▁puts	-3232
▁disag	-3233
▁japan	-3234
▁noise	-3235
▁sharp	-3236
▁events	-3237
ropriate	-3238
▁keeping	-3239
▁wasting	-3240
▁destroyed	-3241
▁photoshop	-3242
▁thousands	-3243
▁instrument	-3244
ler	-3245
ral	-3246
iety	-3247
noon	-3248
▁sir	-3249
▁wide	-3250
▁cities	-3251
▁kitchen	-3252
▁afternoon	-3253
izz	-3254
thy	-3255
uce	-3256
und	-3257
▁alco	-3258
▁bold	-3259
▁bond	-3260
▁craf	-3261
▁pair	-3262
▁shadows	-3263
▁sharing	-3264
▁wouldnt	-3265
▁powerful	-3266
▁fascinating	-3267
▁breathtaking	-3268
▁mer	-3269
idence	-3270
▁leaving	-3271
▁workers	-3272
▁sleeping	-3273
▁traveling	-3274
wl	-3275
asty	-3276
ther	-3277
▁dim	-3278
▁unf	-3279
essed	-3280
itary	-3281
▁answ	-3282
▁tack	-3283
▁balloon	-3284
▁camping	-3285
▁discuss	-3286
▁disturb	-3287
▁plastic	-3288
▁speaker	-3289
▁compared	-3290
▁chocolate	-3291
ems	-3292
▁inn	-3293
ening	-3294
ently	-3295
athers	-3296
▁appro	-3297
▁plays	-3298
▁spell	-3299
▁umbre	-3300
▁veget	-3301
▁accept	-3302
▁barely	-3303
▁determ	-3304
▁turned	-3305
▁balance	-3306
▁colored	-3307
▁focused	-3308
▁confident	-3309
▁fac	-3310
▁fer	-3311
▁lap	-3312
▁glow	-3313
▁heat	-3314
others	-3315
▁broke	-3316
▁grave	-3317
▁kitty	-3318
▁raise	-3319
▁tight	-3320
▁value	-3321
▁harder	-3322
▁dresses	-3323
▁disagree	-3324
▁shopping	-3325
▁beautifully	-3326
uel	-3327
▁nor	-3328
▁awww	-3329
▁sink	-3330
▁voice	-3331
▁action	-3332
▁umbrell	-3333
▁balloons	-3334
▁families	-3335
▁statement	-3336
▁decorations	-3337
zz	-3338
life	-3339
▁mem	-3340
asses	-3341
▁leads	-3342
▁stren	-3343
▁closed	-3344
▁minute	-3345
▁useful	-3346
▁alcohol	-3347
▁haunted	-3348
▁laughing	-3349
▁wondering	-3350
▁relationship	-3351
ugs	-3352
ults	-3353
▁ooh	-3354
▁tex	-3355
▁bicy	-3356
▁damage	-3357
▁disapp	-3358
▁escape	-3359
▁spaces	-3360
▁unlike	-3361
▁english	-3362
▁grandpa	-3363
▁grateful	-3364
▁involved	-3365
▁otherwise	-3366
000	-3367
▁du	-3368
▁cab	-3369
▁pin	-3370
▁mark	-3371
▁phys	-3372
▁wave	-3373
uments	-3374
▁passed	-3375
▁roller	-3376
fficient	-3377
▁welcome	-3378
▁electric	-3379
▁opportunity	-3380
hy	-3381
▁meh	-3382
▁card	-3383
▁mans	-3384
▁pack	-3385
▁bread	-3386
▁clock	-3387
▁doors	-3388
▁rules	-3389
▁sweat	-3390
▁useless	-3391
▁gentleman	-3392
▁necessary	-3393
aly	-3394
uth	-3395
onds	-3396
▁lab	-3397
▁pig	-3398
oomed	-3399
▁eaten	-3400
▁frame	-3401
ference	-3402
▁murder	-3403
▁regard	-3404
▁pollution	-3405
read	-3406
ended	-3407
gress	-3408
▁chop	-3409
▁onto	-3410
▁parts	-3411
▁prett	-3412
▁hallow	-3413
▁thrill	-3414
▁personality	-3415
hor	-3416
iev	-3417
ius	-3418
roph	-3419
ocked	-3420
▁isnt	-3421
▁lack	-3422
▁asked	-3423
▁chines	-3424
▁cloudy	-3425
▁ruined	-3426
▁knowing	-3427
▁celebrate	-3428
▁basketball	-3429
ief	-3430
rete	-3431
▁lux	-3432
uddle	-3433
▁flash	-3434
▁intri	-3435
▁minds	-3436
▁cancer	-3437
▁posing	-3438
▁changed	-3439
▁chinese	-3440
▁skyline	-3441
▁spectac	-3442
▁strength	-3443
nel	-3444
ests	-3445
▁lim	-3446
▁scr	-3447
▁activ	-3448
▁offer	-3449
▁tasty	-3450
▁athlet	-3451
▁shades	-3452
▁reality	-3453
▁uniform	-3454
▁historic	-3455
▁students	-3456
how	-3457
udes	-3458
▁adv	-3459
ipped	-3460
wards	-3461
▁cust	-3462
▁dust	-3463
friend	-3464
▁polit	-3465
▁shore	-3466
▁anyways	-3467
▁cleaned	-3468
▁kidding	-3469
▁concrete	-3470
▁emotions	-3471
▁fighting	-3472
▁research	-3473
rets	-3474
▁fla	-3475
▁ign	-3476
▁law	-3477
▁whoa	-3478
▁horiz	-3479
▁queen	-3480
▁sister	-3481
▁neither	-3482
arr	-3483
rel	-3484
▁bees	-3485
▁pizz	-3486
▁naked	-3487
▁insane	-3488
▁lively	-3489
▁obvious	-3490
▁marriage	-3491
▁beginning	-3492
▁delightful	-3493
▁personally	-3494
pie	-3495
▁ded	-3496
▁pole	-3497
▁sant	-3498
▁nasty	-3499
▁snake	-3500
▁easier	-3501
▁selfie	-3502
▁upside	-3503
▁activity	-3504
▁cleaning	-3505
▁incredibly	-3506
iers	-3507
▁rev	-3508
▁ease	-3509
▁hobb	-3510
▁send	-3511
▁award	-3512
▁caring	-3513
▁custom	-3514
▁indust	-3515
▁possib	-3516
▁sharks	-3517
▁wheels	-3518
▁homeless	-3519
▁mysterious	-3520
gic	-3521
▁est	-3522
ators	-3523
▁grew	-3524
▁junk	-3525
▁wins	-3526
tering	-3527
▁trave	-3528
▁admire	-3529
▁invest	-3530
▁quickly	-3531
ives	-3532
▁ate	-3533
▁wre	-3534
rated	-3535
▁crap	-3536
▁shes	-3537
▁heavy	-3538
▁hello	-3539
▁press	-3540
▁spark	-3541
▁views	-3542
▁enjoyed	-3543
▁halloween	-3544
ale	-3545
pic	-3546
▁ped	-3547
▁roo	-3548
▁spo	-3549
▁blan	-3550
▁wake	-3551
▁drums	-3552
▁flood	-3553
▁items	-3554
▁battle	-3555
▁makeup	-3556
▁tastes	-3557
▁curious	-3558
▁branches	-3559
▁ceremony	-3560
▁religious	-3561
ana	-3562
ork	-3563
▁ut	-3564
cked	-3565
▁furn	-3566
icking	-3567
▁disco	-3568
▁occas	-3569
▁images	-3570
▁memory	-3571
▁designs	-3572
▁patterns	-3573
▁sometime	-3574
ots	-3575
▁eag	-3576
▁ner	-3577
▁wit	-3578
guing	-3579
▁circ	-3580
▁torn	-3581
▁goofy	-3582
▁hurry	-3583
▁inner	-3584
▁shiny	-3585
ization	-3586
▁slowly	-3587
▁decided	-3588
acy	-3589
ils	-3590
▁sac	-3591
▁ven	-3592
▁cell	-3593
▁costs	-3594
▁couch	-3595
▁holds	-3596
▁squir	-3597
▁return	-3598
▁shorts	-3599
▁explain	-3600
▁inviting	-3601
▁motorcycle	-3602
gar	-3603
cent	-3604
▁cha	-3605
▁cave	-3606
▁coun	-3607
▁cozy	-3608
▁frog	-3609
▁grown	-3610
▁killing	-3611
▁station	-3612
▁village	-3613
▁tranquil	-3614
oh	-3615
cif	-3616
omb	-3617
▁ew	-3618
▁cop	-3619
▁shr	-3620
▁film	-3621
▁soph	-3622
▁suff	-3623
▁beard	-3624
▁hilar	-3625
▁sever	-3626
▁hahaha	-3627
▁artists	-3628
▁process	-3629
▁airplane	-3630
dom	-3631
drop	-3632
▁goo	-3633
iving	-3634
▁flip	-3635
fortun	-3636
▁china	-3637
▁santa	-3638
▁truth	-3639
vention	-3640
▁charge	-3641
▁disney	-3642
▁arrange	-3643
▁learned	-3644
▁cultures	-3645
▁festival	-3646
ex	-3647
ims	-3648
stal	-3649
▁gaz	-3650
▁pee	-3651
osaur	-3652
sters	-3653
▁bowl	-3654
▁bust	-3655
▁mush	-3656
▁rose	-3657
▁soup	-3658
▁trop	-3659
▁vict	-3660
▁spray	-3661
glasses	-3662
▁finest	-3663
▁finger	-3664
▁engaging	-3665
▁exploring	-3666
par	-3667
▁lie	-3668
▁rot	-3669
▁vint	-3670
erable	-3671
ushing	-3672
▁daily	-3673
▁observ	-3674
▁vintage	-3675
▁continue	-3676
▁visiting	-3677
▁spectacular	-3678
bl	-3679
we	-3680
ids	-3681
ched	-3682
gers	-3683
ises	-3684
medi	-3685
▁tax	-3686
▁lift	-3687
▁weren	-3688
▁prison	-3689
▁cooking	-3690
▁unfortun	-3691
▁appealing	-3692
▁concerned	-3693
▁hilarious	-3694
reed	-3695
zard	-3696
▁enc	-3697
▁imm	-3698
iture	-3699
▁enth	-3700
▁lamp	-3701
▁dedic	-3702
▁pizza	-3703
▁skies	-3704
▁immedi	-3705
▁stones	-3706
▁darling	-3707
▁carefully	-3708
▁poisonous	-3709
▁sophistic	-3710
▁sunglasses	-3711
▁non	-3712
▁pow	-3713
▁held	-3714
▁aller	-3715
▁moves	-3716
▁seats	-3717
▁crowds	-3718
▁intern	-3719
▁killer	-3720
▁strang	-3721
▁several	-3722
▁delicate	-3723
▁millions	-3724
▁adventures	-3725
▁successful	-3726
leep	-3727
▁net	-3728
▁yay	-3729
▁iron	-3730
▁mult	-3731
▁balls	-3732
▁bench	-3733
▁blank	-3734
▁depth	-3735
▁suits	-3736
▁crafts	-3737
▁hardly	-3738
▁speaks	-3739
▁specif	-3740
▁respons	-3741
▁rolling	-3742
▁written	-3743
▁miserable	-3744
▁organized	-3745
▁activities	-3746
▁generations	-3747
lt	-3748
ders	-3749
piece	-3750
▁born	-3751
▁ring	-3752
▁indic	-3753
▁innoc	-3754
▁lifet	-3755
▁placed	-3756
▁anybody	-3757
▁dinosaur	-3758
top	-3759
▁ash	-3760
▁egg	-3761
▁rab	-3762
▁van	-3763
▁wis	-3764
▁damn	-3765
▁ears	-3766
▁laid	-3767
▁pupp	-3768
▁rece	-3769
▁force	-3770
▁neckl	-3771
▁sneak	-3772
▁decide	-3773
▁destru	-3774
▁genius	-3775
▁emotion	-3776
▁heights	-3777
▁tourist	-3778
▁distract	-3779
▁ordinary	-3780
▁particular	-3781
sp	-3782
▁pir	-3783
▁mask	-3784
▁thre	-3785
▁benef	-3786
▁improve	-3787
▁popular	-3788
▁princess	-3789
▁furniture	-3790
▁composition	-3791
▁jam	-3792
▁zoo	-3793
▁till	-3794
ension	-3795
▁freak	-3796
▁affect	-3797
▁agreed	-3798
▁circle	-3799
▁gotten	-3800
▁grandm	-3801
▁apartment	-3802
▁structures	-3803
real	-3804
▁jun	-3805
acher	-3806
▁peri	-3807
▁tent	-3808
▁messy	-3809
▁advert	-3810
▁asleep	-3811
▁crying	-3812
▁inspir	-3813
▁picked	-3814
▁haircut	-3815
▁horizon	-3816
▁pleasing	-3817
▁sunlight	-3818
▁meaningless	-3819
."	-3820
ros	-3821
▁pi	-3822
mans	-3823
▁nar	-3824
▁tan	-3825
icing	-3826
▁beha	-3827
▁deer	-3828
▁vast	-3829
▁worn	-3830
▁hurts	-3831
▁pitch	-3832
▁solid	-3833
▁commun	-3834
▁military	-3835
town	-3836
ulate	-3837
▁fans	-3838
▁poop	-3839
▁spin	-3840
▁tren	-3841
▁coast	-3842
▁enter	-3843
▁exhib	-3844
▁tells	-3845
▁casual	-3846
▁ghosts	-3847
▁marath	-3848
▁biggest	-3849
▁blanket	-3850
▁candles	-3851
▁current	-3852
▁feature	-3853
▁attitude	-3854
▁conference	-3855
▁generation	-3856
ffe	-3857
ooo	-3858
anes	-3859
izes	-3860
oned	-3861
zing	-3862
▁doct	-3863
▁rise	-3864
▁sugg	-3865
▁congr	-3866
▁turns	-3867
▁fields	-3868
▁spread	-3869
▁secrets	-3870
▁function	-3871
▁efficient	-3872
▁impressed	-3873
gre	-3874
imp	-3875
nov	-3876
ode	-3877
▁um	-3878
▁log	-3879
rical	-3880
▁quit	-3881
▁shoo	-3882
▁weak	-3883
▁homes	-3884
▁marry	-3885
▁tears	-3886
▁laying	-3887
▁missed	-3888
▁period	-3889
▁splash	-3890
▁pretend	-3891
▁staying	-3892
▁backdrop	-3893
▁elephant	-3894
▁occasion	-3895
▁starting	-3896
▁appropriate	-3897
▁celebration	-3898
0'	-3899
reds	-3900
▁civ	-3901
liest	-3902
matic	-3903
▁lean	-3904
▁nope	-3905
▁tank	-3906
▁score	-3907
▁sheep	-3908
▁movies	-3909
▁sticks	-3910
▁shining	-3911
▁lifetime	-3912
▁particip	-3913
gue	-3914
vag	-3915
fast	-3916
uals	-3917
▁clue	-3918
▁glam	-3919
▁hunt	-3920
▁souls	-3921
▁walks	-3922
▁shapes	-3923
▁strugg	-3924
▁theres	-3925
▁century	-3926
▁fingers	-3927
▁creating	-3928
▁finished	-3929
▁tourists	-3930
▁terrifying	-3931
▁immediately	-3932
asing	-3933
▁arri	-3934
▁milk	-3935
▁moved	-3936
▁rides	-3937
▁dreary	-3938
▁poster	-3939
▁partner	-3940
▁spirits	-3941
▁greenery	-3942
▁matching	-3943
▁material	-3944
▁prepared	-3945
▁passionate	-3946
▁regardless	-3947
".	-3948
azz	-3949
ets	-3950
▁cu	-3951
uses	-3952
▁dee	-3953
▁led	-3954
▁neg	-3955
anced	-3956
orous	-3957
▁carp	-3958
▁dies	-3959
▁golf	-3960
▁jobs	-3961
▁rush	-3962
▁bloss	-3963
▁weeds	-3964
▁double	-3965
▁expert	-3966
▁record	-3967
▁colours	-3968
▁invited	-3969
▁science	-3970
▁extravag	-3971
for	-3972
ased	-3973
icop	-3974
kers	-3975
▁alot	-3976
▁cows	-3977
▁lion	-3978
▁trim	-3979
▁harsh	-3980
▁plans	-3981
▁scarf	-3982
manship	-3983
▁captiv	-3984
▁search	-3985
▁despite	-3986
▁matches	-3987
▁teacher	-3988
▁approach	-3989
▁uniforms	-3990
▁boyfriend	-3991
▁breakfast	-3992
▁depressed	-3993
xic	-3994
▁mr	-3995
▁del	-3996
▁ess	-3997
ified	-3998
▁bank	-3999
▁pile	-4000
▁ideal	-4001
▁behold	-4002
▁classy	-4003
▁golden	-4004
▁smells	-4005
▁wasted	-4006
▁fortune	-4007
▁helicop	-4008
▁microph	-4009
▁cultural	-4010
▁dressing	-4011
▁--	-4012
amed	-4013
▁pil	-4014
erved	-4015
shine	-4016
▁crit	-4017
▁palm	-4018
▁sche	-4019
▁shel	-4020
▁aband	-4021
▁demon	-4022
▁scale	-4023
▁attemp	-4024
▁stylish	-4025
▁wonders	-4026
▁sophisticated	-4027
lly	-4028
▁dy	-4029
esth	-4030
▁sus	-4031
▁brush	-4032
▁shine	-4033
▁yummy	-4034
ativity	-4035
▁angles	-4036
▁asking	-4037
▁breaks	-4038
▁consid	-4039
▁excite	-4040
▁stream	-4041
▁foreign	-4042
▁outdoor	-4043
▁blocking	-4044
▁humanity	-4045
▁religion	-4046
▁umbrella	-4047
iar	-4048
rup	-4049
usi	-4050
▁bes	-4051
▁der	-4052
▁cage	-4053
▁lens	-4054
▁	-4055
e	-4056
t	-4057
o	-4058
i	-4059
a	-4060
s	-4061
n	-4062
h	-4063
r	-4064
l	-4065
d	-4066
u	-4067
y	-4068
m	-4069
g	-4070
c	-4071
w	-4072
f	-4073
.	-4074
p	-4075
b	-4076
k	-4077
v	-4078
'	-4079
,	-4080
!	-4081
j	-4082
?	-4083
x	-4084
z	-4085
q	-4086
-	-4087
0	-4088
"	-4089
1	-4090
;	-4091
2	-4092
