<unk>	0
<s>	0
</s>	0
▁i	-0
▁t	-1
▁a	-2
▁.	-3
ou	-4
▁w	-5
▁th	-6
▁s	-7
▁m	-8
re	-9
▁h	-10
in	-11
at	-12
▁y	-13
ve	-14
▁b	-15
▁d	-16
▁c	-17
▁l	-18
▁f	-19
▁o	-20
▁the	-21
▁you	-22
▁to	-23
ing	-24
▁n	-25
▁g	-26
er	-27
or	-28
nd	-29
▁,	-30
es	-31
▁do	-32
ll	-33
▁p	-34
▁ha	-35
▁is	-36
▁?	-37
an	-38
ke	-39
ot	-40
▁my	-41
it	-42
ar	-43
oo	-44
en	-45
st	-46
▁it	-47
▁li	-48
▁that	-49
et	-50
▁I	-51
▁have	-52
om	-53
ay	-54
▁!	-55
▁and	-56
▁wh	-57
▁in	-58
ed	-59
on	-60
ow	-61
▁be	-62
ic	-63
▁am	-64
▁of	-65
ld	-66
▁like	-67
▁on	-68
as	-69
▁e	-70
▁lo	-71
ch	-72
▁re	-73
▁are	-74
▁not	-75
ut	-76
le	-77
id	-78
▁we	-79
▁for	-80
ver	-81
gh	-82
all	-83
al	-84
is	-85
▁me	-86
im	-87
▁so	-88
▁he	-89
ly	-90
▁love	-91
ri	-92
us	-93
▁k	-94
ould	-95
▁an	-96
▁j	-97
ad	-98
am	-99
▁what	-100
▁sh	-101
ood	-102
out	-103
▁st	-104
ith	-105
▁but	-106
ust	-107
un	-108
ome	-109
▁r	-110
ea	-111
▁with	-112
▁was	-113
▁ne	-114
se	-115
▁wor	-116
ally	-117
ght	-118
▁go	-119
op	-120
▁your	-121
▁at	-122
▁too	-123
▁can	-124
ake	-125
ir	-126
ill	-127
▁pl	-128
ac	-129
▁ch	-130
▁good	-131
▁just	-132
▁al	-133
very	-134
▁tr	-135
▁they	-136
▁dog	-137
ool	-138
ur	-139
▁get	-140
▁T	-141
▁work	-142
th	-143
ent	-144
▁mo	-145
ice	-146
▁se	-147
▁Th	-148
ook	-149
ce	-150
▁would	-151
▁yes	-152
up	-153
▁all	-154
▁no	-155
▁ab	-156
ite	-157
nds	-158
ant	-159
ere	-160
ion	-161
▁cat	-162
▁gre	-163
▁as	-164
ter	-165
▁any	-166
ime	-167
▁will	-168
▁fa	-169
ind	-170
▁play	-171
▁them	-172
▁about	-173
▁one	-174
▁really	-175
nt	-176
▁time	-177
ob	-178
▁W	-179
▁co	-180
and	-181
▁oh	-182
▁very	-183
▁out	-184
▁fr	-185
▁great	-186
ct	-187
▁su	-188
ink	-189
ers	-190
▁how	-191
▁well	-192
▁some	-193
▁fun	-194
▁lot	-195
▁nice	-196
▁sou	-197
▁cool	-198
are	-199
▁there	-200
ge	-201
ies	-202
ate	-203
▁sp	-204
ish	-205
▁when	-206
▁she	-207
▁Y	-208
ain	-209
ry	-210
vor	-211
oy	-212
her	-213
ess	-214
▁up	-215
ear	-216
eah	-217
ak	-218
now	-219
▁en	-220
one	-221
ough	-222
▁did	-223
▁or	-224
▁kid	-225
ck	-226
ab	-227
▁favor	-228
pp	-229
ul	-230
▁favorite	-231
▁v	-232
art	-233
▁pr	-234
el	-235
ays	-236
▁us	-237
▁from	-238
ong	-239
▁dogs	-240
▁sounds	-241
fe	-242
our	-243
▁know	-244
ine	-245
▁aw	-246
ight	-247
est	-248
ame	-249
ol	-250
▁pre	-251
▁want	-252
▁ex	-253
▁It	-254
ep	-255
▁mu	-256
▁car	-257
▁think	-258
▁now	-259
ast	-260
▁see	-261
▁much	-262
▁yeah	-263
▁kids	-264
▁had	-265
▁fe	-266
um	-267
▁cl	-268
▁bet	-269
▁com	-270
▁eat	-271
▁br	-272
ive	-273
▁got	-274
▁gr	-275
ie	-276
ore	-277
ard	-278
il	-279
▁som	-280
▁should	-281
ort	-282
ide	-283
ack	-284
▁live	-285
▁lol	-286
ig	-287
▁int	-288
rie	-289
▁its	-290
be	-291
▁more	-292
▁than	-293
ra	-294
▁could	-295
right	-296
▁mus	-297
▁been	-298
▁make	-299
ope	-300
▁wat	-301
▁kind	-302
▁read	-303
ving	-304
▁year	-305
▁pe	-306
▁this	-307
▁H	-308
▁take	-309
▁te	-310
wn	-311
▁day	-312
▁wow	-313
▁somet	-314
ily	-315
▁music	-316
▁only	-317
▁going	-318
os	-319
▁A	-320
▁every	-321
▁man	-322
▁fam	-323
▁gu	-324
ue	-325
▁may	-326
▁thing	-327
▁S	-328
▁That	-329
joy	-330
▁if	-331
▁enjoy	-332
▁’	-333
▁M	-334
▁ar	-335
ach	-336
so	-337
▁old	-338
▁de	-339
▁right	-340
ave	-341
▁need	-342
▁also	-343
ha	-344
▁O	-345
ople	-346
▁sch	-347
▁sure	-348
ty	-349
ree	-350
if	-351
ass	-352
lf	-353
▁people	-354
ways	-355
▁her	-356
▁cook	-357
▁cats	-358
res	-359
▁try	-360
▁hel	-361
ose	-362
ation	-363
ild	-364
▁frie	-365
▁though	-366
▁family	-367
ous	-368
▁new	-369
▁hope	-370
▁af	-371
▁bl	-372
▁sw	-373
▁never	-374
ting	-375
▁tw	-376
ist	-377
▁always	-378
▁food	-379
▁school	-380
▁watch	-381
▁help	-382
▁does	-383
▁Wh	-384
ci	-385
day	-386
▁maybe	-387
ount	-388
▁ve	-389
▁where	-390
alk	-391
▁ag	-392
▁bec	-393
als	-394
▁look	-395
ag	-396
esome	-397
▁pet	-398
▁hi	-399
▁1	-400
▁2	-401
▁awesome	-402
▁The	-403
▁long	-404
▁him	-405
▁here	-406
▁job	-407
▁don	-408
tle	-409
other	-410
▁mom	-411
thing	-412
▁happ	-413
aus	-414
imes	-415
hing	-416
▁oth	-417
ually	-418
▁ke	-419
nder	-420
▁con	-421
▁tea	-422
iz	-423
pe	-424
▁pret	-425
▁ok	-426
uck	-427
▁har	-428
▁has	-429
▁must	-430
ors	-431
▁We	-432
▁bu	-433
▁anim	-434
▁haha	-435
▁home	-436
ause	-437
qu	-438
▁best	-439
▁act	-440
ball	-441
ks	-442
oc	-443
ried	-444
ian	-445
▁pretty	-446
▁mar	-447
▁off	-448
▁wee	-449
akes	-450
orry	-451
ity	-452
▁two	-453
▁other	-454
▁who	-455
▁dr	-456
▁lit	-457
▁D	-458
▁feel	-459
▁then	-460
ace	-461
ound	-462
▁comp	-463
▁fl	-464
▁book	-465
ven	-466
▁sm	-467
▁sorry	-468
▁teach	-469
▁over	-470
▁im	-471
▁big	-472
▁hard	-473
ud	-474
▁because	-475
▁most	-476
ick	-477
les	-478
ful	-479
self	-480
▁bus	-481
▁un	-482
▁veg	-483
▁sc	-484
▁wish	-485
▁N	-486
▁own	-487
ure	-488
▁ad	-489
▁his	-490
▁You	-491
ng	-492
▁little	-493
▁many	-494
og	-495
▁child	-496
▁after	-497
▁dri	-498
▁animals	-499
▁by	-500
▁3	-501
▁way	-502
▁keep	-503
▁better	-504
cc	-505
lle	-506
▁Yes	-507
▁che	-508
▁back	-509
ile	-510
▁our	-511
▁dan	-512
▁were	-513
▁cake	-514
▁trave	-515
▁Oh	-516
▁name	-517
aking	-518
▁years	-519
▁sa	-520
obb	-521
erest	-522
arent	-523
▁u	-524
▁ro	-525
▁beach	-526
oth	-527
▁life	-528
ase	-529
▁le	-530
▁interest	-531
▁hobb	-532
▁being	-533
▁spe	-534
▁travel	-535
act	-536
ire	-537
ning	-538
▁pets	-539
▁sometimes	-540
▁fish	-541
▁fo	-542
▁parent	-543
▁colle	-544
izz	-545
▁sur	-546
▁My	-547
▁why	-548
▁still	-549
▁those	-550
▁count	-551
▁gir	-552
ap	-553
▁used	-554
▁things	-555
▁qu	-556
▁pizz	-557
▁into	-558
ather	-559
▁What	-560
▁ever	-561
ff	-562
▁rel	-563
▁bad	-564
▁col	-565
▁far	-566
▁walk	-567
ress	-568
▁sing	-569
▁run	-570
he	-571
▁pizza	-572
▁friends	-573
ary	-574
▁even	-575
▁part	-576
▁care	-577
ren	-578
▁mine	-579
▁anything	-580
az	-581
▁lea	-582
ked	-583
ade	-584
▁hair	-585
ought	-586
▁prob	-587
▁playing	-588
ute	-589
▁C	-590
▁bo	-591
▁sk	-592
au	-593
age	-594
▁parents	-595
ull	-596
▁list	-597
ment	-598
▁par	-599
▁B	-600
ich	-601
▁band	-602
oon	-603
▁app	-604
▁find	-605
ames	-606
ble	-607
▁hear	-608
able	-609
▁fir	-610
▁actually	-611
▁while	-612
fore	-613
king	-614
▁something	-615
▁listen	-616
▁interesting	-617
▁doing	-618
▁el	-619
▁last	-620
▁first	-621
▁before	-622
ince	-623
▁come	-624
▁tell	-625
iss	-626
▁around	-627
▁since	-628
▁friend	-629
ise	-630
▁country	-631
ouse	-632
▁getting	-633
▁hus	-634
▁happy	-635
▁boy	-636
▁guess	-637
▁married	-638
▁show	-639
▁night	-640
ax	-641
▁dad	-642
▁wr	-643
aught	-644
ket	-645
▁red	-646
▁swe	-647
▁their	-648
▁drive	-649
▁start	-650
ft	-651
ife	-652
▁books	-653
ger	-654
▁young	-655
▁myself	-656
xt	-657
▁girl	-658
▁He	-659
▁di	-660
iting	-661
▁stud	-662
erson	-663
▁else	-664
oney	-665
▁college	-666
▁swim	-667
▁imp	-668
▁living	-669
ny	-670
▁person	-671
oom	-672
ip	-673
▁under	-674
▁color	-675
ert	-676
▁say	-677
▁give	-678
▁mov	-679
▁thank	-680
▁ph	-681
▁working	-682
▁foot	-683
▁sport	-684
ens	-685
▁plan	-686
▁class	-687
▁wo	-688
▁wa	-689
mer	-690
▁sup	-691
▁wife	-692
▁hobbies	-693
▁husb	-694
own	-695
▁hors	-696
▁bi	-697
▁true	-698
ms	-699
side	-700
▁pro	-701
▁high	-702
pl	-703
▁bir	-704
▁makes	-705
▁horses	-706
▁husband	-707
ix	-708
▁next	-709
get	-710
▁okay	-711
▁bre	-712
▁down	-713
ber	-714
▁money	-715
ne	-716
fer	-717
▁per	-718
▁luck	-719
ably	-720
▁Well	-721
▁sweet	-722
ream	-723
▁use	-724
▁es	-725
▁once	-726
▁same	-727
▁cr	-728
▁few	-729
▁id	-730
▁lear	-731
ious	-732
▁stay	-733
▁gard	-734
▁shop	-735
▁house	-736
▁children	-737
▁heal	-738
▁city	-739
▁hate	-740
ia	-741
▁call	-742
▁today	-743
▁rec	-744
▁drink	-745
▁garden	-746
▁gl	-747
▁week	-748
ten	-749
▁pass	-750
▁Yeah	-751
▁hor	-752
▁reading	-753
ings	-754
ost	-755
ated	-756
▁cann	-757
ple	-758
▁ride	-759
▁amaz	-760
▁miss	-761
▁They	-762
▁probably	-763
▁5	-764
fin	-765
▁son	-766
pt	-767
▁let	-768
▁football	-769
▁went	-770
▁place	-771
▁blue	-772
▁wonder	-773
ath	-774
▁No	-775
▁away	-776
ping	-777
▁amazing	-778
▁rest	-779
▁spend	-780
▁cooking	-781
leep	-782
▁bab	-783
▁made	-784
▁bea	-785
▁soon	-786
▁train	-787
▁mon	-788
▁cannot	-789
▁health	-790
▁beaut	-791
▁sist	-792
ents	-793
ner	-794
itely	-795
▁relax	-796
▁talk	-797
▁might	-798
▁brother	-799
finitely	-800
▁underst	-801
cially	-802
▁rem	-803
ance	-804
▁prefer	-805
▁exc	-806
▁farm	-807
▁mean	-808
▁vis	-809
▁meat	-810
▁small	-811
▁cra	-812
▁guy	-813
urn	-814
▁team	-815
▁ll	-816
▁Than	-817
▁L	-818
ond	-819
ange	-820
▁days	-821
iff	-822
ese	-823
pecially	-824
ph	-825
▁busy	-826
▁inst	-827
▁three	-828
▁sleep	-829
▁thought	-830
▁grow	-831
▁min	-832
▁understand	-833
▁yet	-834
▁G	-835
▁nur	-836
ell	-837
▁ret	-838
▁sports	-839
te	-840
ations	-841
▁thanks	-842
ict	-843
▁watching	-844
▁definitely	-845
ither	-846
uff	-847
▁win	-848
▁both	-849
▁move	-850
▁enough	-851
▁art	-852
▁especially	-853
▁pain	-854
ord	-855
▁po	-856
▁thr	-857
▁diff	-858
my	-859
▁How	-860
▁ple	-861
▁trying	-862
▁learn	-863
ady	-864
▁idea	-865
▁funny	-866
▁games	-867
iful	-868
▁exp	-869
▁cute	-870
▁ser	-871
▁4	-872
ons	-873
ub	-874
▁P	-875
▁veget	-876
orn	-877
▁beautiful	-878
▁fin	-879
▁weeke	-880
gg	-881
▁game	-882
▁usually	-883
▁visit	-884
▁cam	-885
▁mostly	-886
amed	-887
▁store	-888
itar	-889
▁month	-890
▁which	-891
erg	-892
ocol	-893
▁ter	-894
▁didn	-895
▁guitar	-896
ken	-897
ding	-898
▁cars	-899
ocolate	-900
▁everything	-901
▁bas	-902
..	-903
ions	-904
▁near	-905
▁free	-906
▁dance	-907
▁looking	-908
▁Did	-909
▁chocolate	-910
▁cou	-911
▁room	-912
▁cle	-913
▁chic	-914
▁meet	-915
▁socc	-916
▁buy	-917
▁water	-918
ats	-919
ery	-920
▁soccer	-921
kes	-922
em	-923
oss	-924
▁ty	-925
▁She	-926
▁des	-927
▁eating	-928
▁world	-929
▁dis	-930
▁again	-931
▁daught	-932
▁ago	-933
▁met	-934
▁put	-935
▁sad	-936
ming	-937
▁fast	-938
ence	-939
▁str	-940
▁real	-941
▁rock	-942
▁bit	-943
▁least	-944
▁happen	-945
▁acc	-946
oes	-947
▁rid	-948
▁birth	-949
▁either	-950
aur	-951
▁wanted	-952
▁someone	-953
▁bel	-954
▁vide	-955
bo	-956
▁bed	-957
ro	-958
▁tom	-959
▁wait	-960
aurant	-961
▁restaurant	-962
ail	-963
▁grand	-964
▁named	-965
▁toget	-966
ps	-967
▁together	-968
ans	-969
ical	-970
▁mind	-971
▁agree	-972
▁nothing	-973
▁having	-974
ory	-975
cial	-976
▁bar	-977
▁R	-978
▁quite	-979
ully	-980
▁truck	-981
dy	-982
▁mother	-983
zy	-984
▁kit	-985
erc	-986
▁la	-987
▁baby	-988
▁done	-989
▁ball	-990
ired	-991
▁often	-992
▁tv	-993
▁din	-994
▁hot	-995
▁movies	-996
▁teacher	-997
▁ind	-998
fect	-999
ries	-1000
▁yea	-1001
▁lots	-1002
ating	-1003
key	-1004
▁terri	-1005
ped	-1006
▁10	-1007
▁mil	-1008
ts	-1009
wh	-1010
ater	-1011
▁heard	-1012
ang	-1013
red	-1014
▁ear	-1015
▁loc	-1016
▁study	-1017
▁vegan	-1018
▁pay	-1019
▁stuff	-1020
▁such	-1021
▁outside	-1022
▁hu	-1023
fully	-1024
▁surf	-1025
▁black	-1026
▁close	-1027
▁ready	-1028
▁sound	-1029
▁cal	-1030
▁alone	-1031
ieve	-1032
▁birthday	-1033
▁eas	-1034
ib	-1035
any	-1036
▁glad	-1037
▁hour	-1038
▁wear	-1039
▁mount	-1040
▁fishing	-1041
▁wonderful	-1042
▁left	-1043
ures	-1044
▁med	-1045
▁nat	-1046
▁pick	-1047
▁crazy	-1048
▁import	-1049
▁sl	-1050
▁wed	-1051
▁cour	-1052
▁please	-1053
▁differe	-1054
▁daughter	-1055
▁6	-1056
ash	-1057
▁green	-1058
▁So	-1059
ward	-1060
▁healthy	-1061
▁yourself	-1062
▁taking	-1063
▁chicken	-1064
▁walking	-1065
▁making	-1066
▁another	-1067
▁bike	-1068
▁stop	-1069
▁exerc	-1070
▁dinner	-1071
▁sit	-1072
▁horse	-1073
ason	-1074
▁And	-1075
▁dec	-1076
▁mor	-1077
▁sal	-1078
▁able	-1079
▁snow	-1080
▁sister	-1081
▁Do	-1082
ited	-1083
▁nurse	-1084
na	-1085
ult	-1086
▁But	-1087
▁turn	-1088
▁different	-1089
▁vi	-1090
▁hun	-1091
where	-1092
▁basket	-1093
▁fine	-1094
▁bring	-1095
▁helps	-1096
uit	-1097
▁won	-1098
▁cold	-1099
▁fan	-1100
▁allerg	-1101
▁danc	-1102
▁park	-1103
▁rain	-1104
▁hiking	-1105
▁mountain	-1106
▁imag	-1107
▁seen	-1108
ots	-1109
▁pup	-1110
riend	-1111
▁four	-1112
▁eng	-1113
▁leave	-1114
▁times	-1115
ah	-1116
▁cur	-1117
▁tri	-1118
▁morning	-1119
ared	-1120
▁Thank	-1121
▁cheese	-1122
▁boys	-1123
▁char	-1124
▁break	-1125
▁lucky	-1126
▁super	-1127
▁tried	-1128
een	-1129
▁late	-1130
▁hobby	-1131
▁ins	-1132
ates	-1133
▁ice	-1134
▁res	-1135
▁pupp	-1136
▁comput	-1137
▁recent	-1138
▁gets	-1139
▁everyone	-1140
▁dra	-1141
▁sec	-1142
iness	-1143
▁doct	-1144
▁short	-1145
▁wedding	-1146
▁important	-1147
▁ton	-1148
▁loves	-1149
▁believe	-1150
▁basketball	-1151
ics	-1152
▁swimming	-1153
▁hand	-1154
▁looks	-1155
air	-1156
ars	-1157
ork	-1158
less	-1159
▁video	-1160
▁took	-1161
ling	-1162
reat	-1163
▁sum	-1164
▁exercise	-1165
iv	-1166
oud	-1167
▁E	-1168
eak	-1169
int	-1170
▁hur	-1171
llow	-1172
▁clean	-1173
▁started	-1174
br	-1175
ier	-1176
urch	-1177
▁through	-1178
▁sick	-1179
▁pract	-1180
ffe	-1181
ign	-1182
▁jo	-1183
ital	-1184
ction	-1185
▁flow	-1186
▁phot	-1187
▁There	-1188
▁cont	-1189
raid	-1190
▁bake	-1191
▁afraid	-1192
av	-1193
way	-1194
▁sun	-1195
▁build	-1196
▁relaxing	-1197
▁course	-1198
▁weekend	-1199
row	-1200
arian	-1201
▁company	-1202
vers	-1203
▁vol	-1204
▁party	-1205
▁father	-1206
▁single	-1207
▁recently	-1208
ica	-1209
igh	-1210
▁alm	-1211
▁tot	-1212
▁pool	-1213
▁type	-1214
▁local	-1215
▁movie	-1216
▁proble	-1217
ready	-1218
▁summer	-1219
▁already	-1220
▁del	-1221
▁weather	-1222
▁exciting	-1223
bs	-1224
ican	-1225
▁fall	-1226
▁said	-1227
▁check	-1228
▁scary	-1229
▁imagine	-1230
▁ey	-1231
▁op	-1232
▁pict	-1233
▁coffe	-1234
▁finish	-1235
fess	-1236
▁cow	-1237
▁full	-1238
fort	-1239
▁running	-1240
ces	-1241
▁Is	-1242
ongr	-1243
vent	-1244
▁em	-1245
▁att	-1246
▁fly	-1247
▁dream	-1248
▁inter	-1249
▁almost	-1250
▁office	-1251
aces	-1252
ident	-1253
ockey	-1254
▁hang	-1255
▁pres	-1256
▁supp	-1257
▁whats	-1258
orm	-1259
▁base	-1260
▁church	-1261
▁thinking	-1262
ition	-1263
▁coffee	-1264
unch	-1265
▁end	-1266
▁ten	-1267
▁profess	-1268
ds	-1269
vel	-1270
▁vac	-1271
▁tall	-1272
▁older	-1273
▁pur	-1274
▁seems	-1275
do	-1276
io	-1277
▁fit	-1278
ainly	-1279
▁fruit	-1280
ered	-1281
▁song	-1282
▁stress	-1283
▁business	-1284
orrow	-1285
▁each	-1286
▁ext	-1287
osp	-1288
▁yum	-1289
▁names	-1290
▁volun	-1291
▁apples	-1292
▁perfect	-1293
ym	-1294
▁20	-1295
▁talking	-1296
▁ra	-1297
▁happened	-1298
ums	-1299
▁wom	-1300
uring	-1301
▁hosp	-1302
▁kinds	-1303
▁likes	-1304
▁volunte	-1305
▁ner	-1306
▁This	-1307
▁alot	-1308
▁tast	-1309
▁hockey	-1310
mm	-1311
▁sn	-1312
▁comm	-1313
▁grad	-1314
cy	-1315
▁mad	-1316
▁past	-1317
▁sell	-1318
▁computer	-1319
▁shopping	-1320
rist	-1321
▁bro	-1322
▁sim	-1323
▁girls	-1324
▁coming	-1325
ug	-1326
▁ah	-1327
▁inc	-1328
▁remem	-1329
▁head	-1330
▁smart	-1331
▁nature	-1332
▁surger	-1333
atch	-1334
▁pie	-1335
▁these	-1336
▁hospital	-1337
man	-1338
ogra	-1339
▁Are	-1340
▁air	-1341
▁pian	-1342
▁instr	-1343
▁bought	-1344
▁driving	-1345
ape	-1346
▁ap	-1347
▁pot	-1348
▁ski	-1349
board	-1350
▁army	-1351
▁surgery	-1352
cks	-1353
ete	-1354
▁pol	-1355
▁ones	-1356
▁shel	-1357
▁profession	-1358
dle	-1359
rill	-1360
▁easy	-1361
ird	-1362
ted	-1363
▁cant	-1364
▁viol	-1365
▁cream	-1366
▁cons	-1367
▁along	-1368
▁May	-1369
▁dep	-1370
▁adop	-1371
▁seem	-1372
ensive	-1373
ness	-1374
outh	-1375
▁lar	-1376
▁dress	-1377
▁works	-1378
artment	-1379
cept	-1380
▁abs	-1381
▁conc	-1382
▁deal	-1383
▁wind	-1384
▁write	-1385
▁animal	-1386
▁during	-1387
▁younger	-1388
▁ent	-1389
ories	-1390
▁roll	-1391
▁brown	-1392
▁je	-1393
ables	-1394
terday	-1395
▁rather	-1396
der	-1397
olute	-1398
▁amer	-1399
▁ital	-1400
▁piano	-1401
▁months	-1402
▁diet	-1403
▁couple	-1404
▁winter	-1405
ush	-1406
land	-1407
olog	-1408
▁outdo	-1409
▁whole	-1410
▁came	-1411
▁volunteer	-1412
ighb	-1413
others	-1414
▁neighb	-1415
▁tomorrow	-1416
▁lost	-1417
▁pictures	-1418
▁z	-1419
ced	-1420
ead	-1421
▁gym	-1422
▁Wow	-1423
▁rap	-1424
oring	-1425
▁less	-1426
▁found	-1427
▁riding	-1428
▁remember	-1429
ark	-1430
ves	-1431
▁hit	-1432
▁unt	-1433
▁five	-1434
▁girlf	-1435
▁scared	-1436
▁terrible	-1437
▁listening	-1438
▁8	-1439
▁coast	-1440
ump	-1441
▁sib	-1442
▁congr	-1443
olutely	-1444
▁called	-1445
▁shelter	-1446
▁allergic	-1447
▁baseball	-1448
▁mountains	-1449
more	-1450
▁ele	-1451
▁law	-1452
▁catch	-1453
▁loved	-1454
hip	-1455
ins	-1456
ograph	-1457
▁plant	-1458
▁until	-1459
▁passed	-1460
ma	-1461
▁oce	-1462
▁takes	-1463
▁doctor	-1464
▁dancing	-1465
ets	-1466
ved	-1467
▁light	-1468
▁played	-1469
▁instrum	-1470
▁expensive	-1471
ize	-1472
▁ann	-1473
▁cho	-1474
▁chat	-1475
▁clim	-1476
▁huge	-1477
▁vacation	-1478
▁vegetarian	-1479
pr	-1480
▁ma	-1481
enty	-1482
▁gen	-1483
▁saw	-1484
lings	-1485
▁side	-1486
▁impress	-1487
▁siblings	-1488
▁yesterday	-1489
end	-1490
ible	-1491
▁fore	-1492
▁vegg	-1493
▁ocean	-1494
▁camping	-1495
▁flowers	-1496
▁vegetables	-1497
ense	-1498
▁Why	-1499
▁war	-1500
▁stra	-1501
att	-1502
▁guys	-1503
▁race	-1504
▁Ch	-1505
▁anyone	-1506
▁problem	-1507
ida	-1508
lish	-1509
ular	-1510
▁age	-1511
▁fav	-1512
ately	-1513
▁eyes	-1514
▁goes	-1515
▁hours	-1516
▁plane	-1517
▁accident	-1518
▁9	-1519
icy	-1520
ands	-1521
▁phone	-1522
▁brothers	-1523
▁absolutely	-1524
co	-1525
▁pit	-1526
▁change	-1527
▁girlfriend	-1528
rent	-1529
orida	-1530
▁mess	-1531
▁state	-1532
▁places	-1533
▁current	-1534
▁tonight	-1535
mas	-1536
unk	-1537
▁ed	-1538
resh	-1539
▁fix	-1540
▁yog	-1541
▁climb	-1542
▁compl	-1543
▁large	-1544
▁worked	-1545
▁feeling	-1546
ever	-1547
▁aww	-1548
ights	-1549
▁doll	-1550
▁extra	-1551
▁wrong	-1552
▁follow	-1553
▁anymore	-1554
▁retired	-1555
ect	-1556
▁..	-1557
▁pop	-1558
▁born	-1559
▁fresh	-1560
▁special	-1561
▁fel	-1562
▁lab	-1563
atoes	-1564
▁clown	-1565
▁finished	-1566
▁ho	-1567
▁poo	-1568
▁weird	-1569
▁worth	-1570
▁practice	-1571
per	-1572
▁boat	-1573
ristmas	-1574
▁kne	-1575
▁set	-1576
ooked	-1577
▁hike	-1578
▁open	-1579
▁pink	-1580
▁told	-1581
▁keeps	-1582
dd	-1583
line	-1584
▁yoga	-1585
▁moved	-1586
▁artist	-1587
▁florida	-1588
ta	-1589
ys	-1590
ude	-1591
▁ate	-1592
▁hum	-1593
▁vet	-1594
▁gone	-1595
▁tough	-1596
▁instead	-1597
▁sisters	-1598
▁without	-1599
▁outdoors	-1600
▁sometime	-1601
by	-1602
▁leg	-1603
▁mem	-1604
▁neat	-1605
▁south	-1606
▁white	-1607
▁Thanks	-1608
▁totally	-1609
que	-1610
ower	-1611
▁aff	-1612
▁bes	-1613
▁box	-1614
▁hey	-1615
▁fact	-1616
▁heart	-1617
▁later	-1618
▁weeks	-1619
ones	-1620
ween	-1621
▁cut	-1622
▁hop	-1623
▁face	-1624
▁Maybe	-1625
▁exper	-1626
▁ballet	-1627
▁12	-1628
▁cre	-1629
▁draw	-1630
▁paint	-1631
▁stand	-1632
▁mid	-1633
▁cakes	-1634
▁comes	-1635
uce	-1636
atul	-1637
onna	-1638
▁metal	-1639
▁puppy	-1640
▁orange	-1641
▁apartment	-1642
ides	-1643
ills	-1644
▁died	-1645
▁star	-1646
▁gotta	-1647
▁passion	-1648
iet	-1649
ont	-1650
ised	-1651
ored	-1652
room	-1653
▁Let	-1654
▁mex	-1655
▁ran	-1656
▁sir	-1657
▁groc	-1658
▁season	-1659
▁veggies	-1660
ee	-1661
▁...	-1662
▁tre	-1663
▁road	-1664
▁sand	-1665
▁grill	-1666
▁surpr	-1667
▁writing	-1668
▁hopefully	-1669
eday	-1670
▁hon	-1671
ities	-1672
▁purple	-1673
▁alright	-1674
▁All	-1675
▁sea	-1676
▁ste	-1677
▁trip	-1678
▁exact	-1679
▁yours	-1680
▁someday	-1681
ift	-1682
led	-1683
vous	-1684
▁add	-1685
▁ask	-1686
othes	-1687
▁beer	-1688
▁jobs	-1689
▁steak	-1690
▁social	-1691
▁violin	-1692
▁collect	-1693
▁concert	-1694
▁meeting	-1695
atulations	-1696
vice	-1697
▁When	-1698
▁libr	-1699
▁between	-1700
▁currently	-1701
its	-1702
gers	-1703
ounds	-1704
▁save	-1705
fortun	-1706
▁gradu	-1707
▁afford	-1708
▁boring	-1709
▁grocery	-1710
▁nervous	-1711
▁weekends	-1712
fast	-1713
ines	-1714
▁bur	-1715
▁tal	-1716
ience	-1717
ically	-1718
▁canad	-1719
▁delic	-1720
▁smell	-1721
▁worry	-1722
▁clothes	-1723
▁everyday	-1724
ret	-1725
▁aut	-1726
▁pos	-1727
rench	-1728
▁spare	-1729
▁baking	-1730
▁danger	-1731
▁intern	-1732
▁lovely	-1733
▁excited	-1734
ock	-1735
▁If	-1736
ology	-1737
▁lake	-1738
▁fries	-1739
▁surfing	-1740
▁top	-1741
▁grew	-1742
▁wood	-1743
▁inside	-1744
▁breakfast	-1745
fl	-1746
ky	-1747
ied	-1748
▁sub	-1749
▁tur	-1750
iforn	-1751
▁feet	-1752
▁salad	-1753
▁moment	-1754
▁studying	-1755
...	-1756
▁cop	-1757
▁mod	-1758
▁wine	-1759
▁blond	-1760
ues	-1761
▁pea	-1762
▁ref	-1763
▁tac	-1764
▁dish	-1765
▁hurt	-1766
▁serious	-1767
▁singing	-1768
gin	-1769
ike	-1770
▁ac	-1771
haps	-1772
ield	-1773
▁felt	-1774
▁drums	-1775
▁become	-1776
▁19	-1777
▁30	-1778
▁cup	-1779
▁mot	-1780
▁Here	-1781
▁cert	-1782
▁soft	-1783
orable	-1784
▁const	-1785
▁walks	-1786
▁remind	-1787
▁station	-1788
▁delicious	-1789
ugg	-1790
utes	-1791
▁club	-1792
▁gonna	-1793
▁plays	-1794
ifornia	-1795
▁online	-1796
▁italian	-1797
▁building	-1798
cle	-1799
▁god	-1800
▁sty	-1801
▁tra	-1802
itary	-1803
▁bull	-1804
▁cost	-1805
▁join	-1806
▁wild	-1807
▁kitch	-1808
▁roller	-1809
cue	-1810
ney	-1811
▁six	-1812
▁door	-1813
▁foods	-1814
▁middle	-1815
▁waiting	-1816
▁dangerous	-1817
oor	-1818
▁reg	-1819
▁Have	-1820
▁novel	-1821
▁kitchen	-1822
ffic	-1823
▁hmm	-1824
▁goal	-1825
▁wasn	-1826
▁taught	-1827
▁minutes	-1828
▁traveling	-1829
▁cand	-1830
▁feed	-1831
▁nurs	-1832
▁sign	-1833
▁engine	-1834
▁california	-1835
iew	-1836
▁ca	-1837
ural	-1838
▁sew	-1839
▁gold	-1840
▁tech	-1841
▁early	-1842
▁proud	-1843
▁weight	-1844
▁learned	-1845
▁unfortun	-1846
umb	-1847
▁Ok	-1848
ject	-1849
reci	-1850
▁egg	-1851
▁fre	-1852
veral	-1853
▁town	-1854
▁couch	-1855
▁kinda	-1856
▁quick	-1857
▁compet	-1858
▁several	-1859
uc	-1860
azz	-1861
gry	-1862
ina	-1863
come	-1864
▁rug	-1865
▁lady	-1866
▁parr	-1867
▁share	-1868
▁reason	-1869
▁exactly	-1870
▁adorable	-1871
▁neighbor	-1872
ram	-1873
▁dy	-1874
▁Can	-1875
▁mix	-1876
▁beat	-1877
▁card	-1878
▁half	-1879
▁prep	-1880
▁glass	-1881
▁grade	-1882
▁order	-1883
▁french	-1884
▁experience	-1885
▁pa	-1886
▁knew	-1887
▁besides	-1888
▁stories	-1889
▁military	-1890
▁av	-1891
▁yep	-1892
umber	-1893
▁boyf	-1894
▁safe	-1895
▁tenn	-1896
ention	-1897
▁sucks	-1898
▁woman	-1899
▁congratulations	-1900
ror	-1901
▁sci	-1902
attoo	-1903
▁seat	-1904
▁york	-1905
▁bread	-1906
▁broke	-1907
▁famous	-1908
▁tattoo	-1909
▁photograph	-1910
▁Aw	-1911
oose	-1912
▁pat	-1913
▁jazz	-1914
▁yell	-1915
▁learning	-1916
▁ri	-1917
ider	-1918
pect	-1919
▁wel	-1920
▁shoes	-1921
▁shows	-1922
▁babies	-1923
▁forget	-1924
▁appreci	-1925
▁english	-1926
▁painting	-1927
▁impressive	-1928
sh	-1929
▁kn	-1930
itive	-1931
▁cent	-1932
▁stre	-1933
▁doesn	-1934
▁canada	-1935
▁except	-1936
▁student	-1937
▁tomatoes	-1938
ane	-1939
era	-1940
ages	-1941
▁Not	-1942
▁tun	-1943
▁area	-1944
▁chef	-1945
▁hands	-1946
▁lived	-1947
anic	-1948
oyed	-1949
▁bac	-1950
▁beh	-1951
▁inv	-1952
ouble	-1953
▁lives	-1954
▁songs	-1955
▁career	-1956
▁mainly	-1957
▁market	-1958
▁window	-1959
▁everywhere	-1960
od	-1961
iny	-1962
▁ya	-1963
▁mag	-1964
▁van	-1965
ivers	-1966
▁carp	-1967
▁send	-1968
▁match	-1969
▁sense	-1970
▁taste	-1971
▁plenty	-1972
▁second	-1973
▁strong	-1974
▁turned	-1975
▁puppies	-1976
ube	-1977
▁et	-1978
▁ny	-1979
▁bak	-1980
▁bath	-1981
▁grou	-1982
▁nope	-1983
▁divor	-1984
▁seven	-1985
▁honest	-1986
▁happens	-1987
▁boyfriend	-1988
avy	-1989
▁ir	-1990
ract	-1991
ster	-1992
▁org	-1993
▁tie	-1994
▁sort	-1995
urance	-1996
▁colors	-1997
▁design	-1998
▁teaching	-1999
ank	-2000
lic	-2001
▁Re	-2002
▁vo	-2003
▁fant	-2004
▁says	-2005
▁skin	-2006
▁apple	-2007
▁trust	-2008
▁parrot	-2009
▁player	-2010
▁professional	-2011
uct	-2012
▁bag	-2013
▁ham	-2014
▁los	-2015
▁forg	-2016
▁shape	-2017
▁growing	-2018
ids	-2019
ient	-2020
osed	-2021
iving	-2022
▁gave	-2023
▁tour	-2024
▁bacon	-2025
▁field	-2026
▁skiing	-2027
bur	-2028
eed	-2029
ial	-2030
hood	-2031
▁gar	-2032
▁rep	-2033
▁body	-2034
▁dess	-2035
▁expl	-2036
▁lose	-2037
▁muse	-2038
▁tree	-2039
▁model	-2040
▁stick	-2041
▁dessert	-2042
▁welcome	-2043
▁insurance	-2044
00	-2045
ai	-2046
ico	-2047
ices	-2048
▁deg	-2049
icket	-2050
▁lone	-2051
▁meal	-2052
▁yummy	-2053
▁others	-2054
▁trains	-2055
▁perhaps	-2056
▁chatting	-2057
▁engineer	-2058
▁cor	-2059
▁men	-2060
alous	-2061
▁Good	-2062
▁hell	-2063
▁line	-2064
▁thats	-2065
▁unless	-2066
▁hunting	-2067
▁jealous	-2068
▁traffic	-2069
▁snowboard	-2070
ator	-2071
▁maj	-2072
▁hist	-2073
▁math	-2074
▁poor	-2075
▁tennis	-2076
▁america	-2077
▁training	-2078
ama	-2079
ual	-2080
▁sy	-2081
rest	-2082
▁hom	-2083
▁isn	-2084
▁rad	-2085
▁sky	-2086
icult	-2087
▁Then	-2088
▁chea	-2089
▁birds	-2090
▁fight	-2091
▁gener	-2092
▁haven	-2093
▁peace	-2094
▁pleas	-2095
▁tacos	-2096
▁tired	-2097
▁terrif	-2098
▁difficult	-2099
ote	-2100
▁Ha	-2101
head	-2102
ilar	-2103
tend	-2104
▁Now	-2105
▁ger	-2106
▁rac	-2107
uction	-2108
▁awful	-2109
▁decor	-2110
▁Really	-2111
▁behind	-2112
▁horror	-2113
▁secret	-2114
▁simple	-2115
▁coaster	-2116
▁forever	-2117
▁ge	-2118
illy	-2119
▁cas	-2120
▁dam	-2121
▁fat	-2122
▁smo	-2123
▁suit	-2124
▁allow	-2125
▁front	-2126
▁gross	-2127
▁motor	-2128
▁story	-2129
▁blonde	-2130
▁number	-2131
▁police	-2132
hn	-2133
orth	-2134
▁lim	-2135
▁nut	-2136
▁feels	-2137
▁pooped	-2138
▁heights	-2139
▁history	-2140
▁da	-2141
body	-2142
▁huh	-2143
▁pap	-2144
▁whe	-2145
▁drop	-2146
▁pack	-2147
▁board	-2148
▁event	-2149
▁lunch	-2150
▁needs	-2151
▁skate	-2152
▁anyway	-2153
▁adopted	-2154
▁drinking	-2155
▁certainly	-2156
mp	-2157
▁-	-2158
oses	-2159
▁pan	-2160
▁pig	-2161
▁tho	-2162
▁kill	-2163
▁lawy	-2164
▁prop	-2165
▁warm	-2166
▁worst	-2167
▁advent	-2168
▁talent	-2169
▁classes	-2170
▁cookies	-2171
oof	-2172
ove	-2173
ric	-2174
set	-2175
▁ww	-2176
ouch	-2177
▁fut	-2178
▁dead	-2179
▁fair	-2180
▁milk	-2181
▁Would	-2182
▁elect	-2183
▁speak	-2184
▁style	-2185
▁chance	-2186
▁future	-2187
▁helped	-2188
▁indeed	-2189
▁careful	-2190
▁straight	-2191
▁christmas	-2192
▁appreciate	-2193
▁interested	-2194
!!	-2195
apt	-2196
aged	-2197
ustr	-2198
▁drag	-2199
▁hold	-2200
▁rough	-2201
▁trucks	-2202
▁forward	-2203
▁gardening	-2204
▁instrument	-2205
pes	-2206
back	-2207
book	-2208
nday	-2209
ters	-2210
▁100	-2211
▁bob	-2212
▁lau	-2213
▁news	-2214
▁plus	-2215
▁poss	-2216
▁prod	-2217
▁activ	-2218
▁adopt	-2219
▁degree	-2220
▁hoping	-2221
▁lately	-2222
▁novels	-2223
▁reward	-2224
▁wouldn	-2225
hol	-2226
▁ath	-2227
phone	-2228
rible	-2229
▁eggs	-2230
▁Where	-2231
▁barbe	-2232
▁roses	-2233
▁forgot	-2234
▁lonely	-2235
▁ticket	-2236
▁yellow	-2237
▁helping	-2238
▁mexican	-2239
▁sitting	-2240
▁relations	-2241
ef	-2242
ned	-2243
omm	-2244
▁ass	-2245
▁esc	-2246
▁fig	-2247
▁www	-2248
cakes	-2249
oming	-2250
▁Hope	-2251
▁Your	-2252
▁conf	-2253
▁insp	-2254
▁yout	-2255
▁floor	-2256
▁techn	-2257
ational	-2258
▁common	-2259
▁constr	-2260
▁flight	-2261
▁singer	-2262
▁library	-2263
ti	-2264
angu	-2265
form	-2266
▁Don	-2267
▁fla	-2268
▁key	-2269
▁pri	-2270
▁rom	-2271
astic	-2272
▁date	-2273
▁creat	-2274
▁langu	-2275
▁meals	-2276
▁north	-2277
▁choice	-2278
▁choose	-2279
▁shower	-2280
▁youtube	-2281
ws	-2282
ony	-2283
uan	-2284
▁One	-2285
ality	-2286
ative	-2287
ients	-2288
▁Some	-2289
▁athl	-2290
▁dark	-2291
▁fire	-2292
▁rice	-2293
▁self	-2294
▁comfort	-2295
▁doctors	-2296
▁instruments	-2297
▁relationship	-2298
axi	-2299
▁gh	-2300
▁pub	-2301
▁sat	-2302
▁group	-2303
▁scare	-2304
▁spent	-2305
▁wheel	-2306
▁moving	-2307
▁plants	-2308
▁evening	-2309
▁factory	-2310
▁somewhere	-2311
dog	-2312
ior	-2313
ips	-2314
▁ju	-2315
▁ob	-2316
wich	-2317
▁bow	-2318
▁iss	-2319
▁kar	-2320
▁tex	-2321
ising	-2322
ummer	-2323
▁bird	-2324
▁fell	-2325
▁kept	-2326
▁norm	-2327
though	-2328
▁annoy	-2329
▁quiet	-2330
▁throw	-2331
▁treat	-2332
▁wants	-2333
▁hungry	-2334
▁partic	-2335
▁brought	-2336
▁service	-2337
▁horrible	-2338
▁sleeping	-2339
▁students	-2340
ado	-2341
ler	-2342
omet	-2343
▁adm	-2344
▁fol	-2345
▁carr	-2346
itions	-2347
▁breed	-2348
▁grown	-2349
▁power	-2350
▁women	-2351
▁couldn	-2352
▁support	-2353
▁complete	-2354
▁internet	-2355
▁sandwich	-2356
▁classical	-2357
cus	-2358
▁In	-2359
olid	-2360
pper	-2361
chool	-2362
▁cond	-2363
▁lead	-2364
▁marri	-2365
▁clowns	-2366
▁finally	-2367
▁american	-2368
oh	-2369
cer	-2370
ems	-2371
ley	-2372
oub	-2373
▁15	-2374
▁50	-2375
port	-2376
▁Yea	-2377
▁env	-2378
▁eur	-2379
▁zoo	-2380
▁empl	-2381
▁meant	-2382
▁pasta	-2383
▁trans	-2384
▁attend	-2385
▁flying	-2386
▁account	-2387
▁lessons	-2388
da	-2389
bit	-2390
cri	-2391
irt	-2392
▁Be	-2393
ails	-2394
alia	-2395
▁net	-2396
▁opp	-2397
ogram	-2398
▁main	-2399
▁bands	-2400
▁knows	-2401
▁laugh	-2402
▁miles	-2403
▁roomm	-2404
▁german	-2405
▁retire	-2406
▁seeing	-2407
▁street	-2408
▁videos	-2409
▁hanging	-2410
▁present	-2411
▁workout	-2412
▁unfortunately	-2413
ns	-2414
anna	-2415
food	-2416
ring	-2417
▁Was	-2418
▁educ	-2419
▁ghost	-2420
▁holid	-2421
▁entire	-2422
▁states	-2423
▁natural	-2424
▁worried	-2425
▁attention	-2426
ker	-2427
itch	-2428
pher	-2429
▁rob	-2430
child	-2431
▁tend	-2432
▁liter	-2433
▁flavor	-2434
▁seafood	-2435
▁photography	-2436
▁14	-2437
vert	-2438
ying	-2439
▁bud	-2440
▁sol	-2441
▁camp	-2442
▁mill	-2443
▁slow	-2444
▁liked	-2445
▁Sounds	-2446
▁europe	-2447
▁lawyer	-2448
▁racing	-2449
▁annoying	-2450
▁teachers	-2451
▁construction	-2452
els	-2453
med	-2454
sel	-2455
apan	-2456
ends	-2457
ocus	-2458
▁Its	-2459
▁bal	-2460
▁det	-2461
▁fil	-2462
ility	-2463
ision	-2464
umped	-2465
▁pies	-2466
▁focus	-2467
▁piece	-2468
lloween	-2469
▁carpet	-2470
▁caught	-2471
▁needed	-2472
▁photos	-2473
▁saying	-2474
▁enjoyed	-2475
▁although	-2476
▁consider	-2477
▁halloween	-2478
ari	-2479
gue	-2480
ided	-2481
orge	-2482
▁lif	-2483
▁wal	-2484
vered	-2485
▁Sure	-2486
▁cart	-2487
▁ford	-2488
▁loud	-2489
▁pays	-2490
entist	-2491
▁bunch	-2492
▁hates	-2493
▁homes	-2494
▁plans	-2495
▁rides	-2496
▁round	-2497
▁texas	-2498
▁woods	-2499
▁worse	-2500
▁camera	-2501
▁carrots	-2502
▁spending	-2503
▁rewarding	-2504
▁stressful	-2505
asc	-2506
cess	-2507
ushi	-2508
wber	-2509
▁bot	-2510
▁nah	-2511
iring	-2512
lease	-2513
unity	-2514
wards	-2515
▁reci	-2516
▁sons	-2517
▁span	-2518
▁surv	-2519
▁fancy	-2520
▁sushi	-2521
▁expect	-2522
▁lights	-2523
▁recomm	-2524
▁viking	-2525
▁strange	-2526
▁anywhere	-2527
▁possible	-2528
me	-2529
▁'	-2530
ago	-2531
ald	-2532
phe	-2533
▁kay	-2534
▁obs	-2535
▁case	-2536
▁clos	-2537
▁stri	-2538
▁test	-2539
▁death	-2540
▁gives	-2541
▁japan	-2542
▁nephe	-2543
▁active	-2544
▁figure	-2545
▁golden	-2546
▁trouble	-2547
▁recommend	-2548
ato	-2549
rit	-2550
flix	-2551
▁lay	-2552
▁mac	-2553
cious	-2554
▁rich	-2555
▁skyd	-2556
▁soup	-2557
▁boots	-2558
▁clear	-2559
▁space	-2560
▁depends	-2561
▁handful	-2562
▁kidding	-2563
▁chickens	-2564
▁marriage	-2565
▁problems	-2566
rol	-2567
▁St	-2568
▁pu	-2569
ants	-2570
etic	-2571
lymp	-2572
work	-2573
▁occ	-2574
aptop	-2575
arely	-2576
ature	-2577
cohol	-2578
▁gift	-2579
▁lets	-2580
▁ship	-2581
▁size	-2582
▁syst	-2583
▁bills	-2584
▁ended	-2585
▁spicy	-2586
▁taken	-2587
▁twice	-2588
▁iphone	-2589
▁laptop	-2590
▁chicago	-2591
▁suppose	-2592
▁barbecue	-2593
▁surprised	-2594
▁18	-2595
icer	-2596
▁gas	-2597
ggest	-2598
icing	-2599
inese	-2600
▁lift	-2601
▁asked	-2602
▁daily	-2603
▁major	-2604
▁means	-2605
▁ranch	-2606
▁cancer	-2607
▁dancer	-2608
▁looked	-2609
▁netflix	-2610
▁nursing	-2611
▁suggest	-2612
▁strawber	-2613
ipp	-2614
cell	-2615
view	-2616
▁See	-2617
▁fur	-2618
▁mat	-2619
▁ori	-2620
▁pen	-2621
▁pic	-2622
essed	-2623
vious	-2624
▁fave	-2625
▁hunt	-2626
▁mach	-2627
▁mini	-2628
▁shar	-2629
selves	-2630
▁candy	-2631
▁cause	-2632
▁charl	-2633
▁cheap	-2634
▁hello	-2635
▁olymp	-2636
▁using	-2637
▁center	-2638
▁charac	-2639
▁longer	-2640
▁alcohol	-2641
▁survive	-2642
▁peaceful	-2643
▁starting	-2644
▁Christmas	-2645
▁particular	-2646
▁personally	-2647
asy	-2648
mon	-2649
oot	-2650
ific	-2651
umpk	-2652
▁bub	-2653
▁prom	-2654
▁vint	-2655
uggage	-2656
burgers	-2657
cellent	-2658
▁minute	-2659
▁nearby	-2660
▁against	-2661
▁dragons	-2662
▁parking	-2663
▁tattoos	-2664
▁vintage	-2665
▁surprise	-2666
▁allergies	-2667
amp	-2668
ears	-2669
ging	-2670
nect	-2671
onda	-2672
▁gam	-2673
ffles	-2674
▁doub	-2675
▁rent	-2676
▁repl	-2677
▁spea	-2678
▁step	-2679
▁taxi	-2680
iction	-2681
▁blast	-2682
▁casin	-2683
▁cover	-2684
▁items	-2685
▁kitty	-2686
▁trail	-2687
▁wanna	-2688
▁wrest	-2689
▁handle	-2690
▁retrie	-2691
▁saving	-2692
▁quickly	-2693
▁similar	-2694
▁telling	-2695
▁climbing	-2696
▁softball	-2697
och	-2698
oph	-2699
acks	-2700
arch	-2701
ires	-2702
▁arm	-2703
▁bat	-2704
▁ord	-2705
▁auth	-2706
▁cows	-2707
▁crow	-2708
▁land	-2709
▁ohio	-2710
▁paid	-2711
▁Thats	-2712
▁chess	-2713
▁lover	-2714
▁manag	-2715
▁offer	-2716
▁flower	-2717
▁kitten	-2718
▁loving	-2719
▁decided	-2720
▁luggage	-2721
▁skateboard	-2722
reed	-2723
tern	-2724
▁bun	-2725
▁laz	-2726
house	-2727
ments	-2728
ption	-2729
▁Haha	-2730
▁cash	-2731
▁kitt	-2732
▁Great	-2733
▁earth	-2734
▁italy	-2735
▁pumpk	-2736
▁system	-2737
▁control	-2738
▁program	-2739
▁concerts	-2740
▁memories	-2741
▁collection	-2742
sy	-2743
nce	-2744
airs	-2745
reen	-2746
ross	-2747
▁die	-2748
olved	-2749
▁Look	-2750
▁proc	-2751
▁spec	-2752
▁tele	-2753
▁trad	-2754
othing	-2755
▁Which	-2756
▁blood	-2757
▁chang	-2758
▁intro	-2759
▁point	-2760
▁total	-2761
▁diving	-2762
▁league	-2763
▁raised	-2764
▁bulldog	-2765
▁luckily	-2766
▁medical	-2767
▁waffles	-2768
▁cleaning	-2769
▁congrats	-2770
▁whatever	-2771
▁youngest	-2772
▁daughters	-2773
▁completely	-2774
▁practicing	-2775
ls	-2776
The	-2777
ota	-2778
▁cu	-2779
iver	-2780
ized	-2781
over	-2782
time	-2783
▁anx	-2784
▁civ	-2785
▁cru	-2786
▁cry	-2787
▁ugh	-2788
ochet	-2789
▁Amer	-2790
▁dest	-2791
▁form	-2792
▁lawn	-2793
▁lazy	-2794
▁pull	-2795
▁twin	-2796
ashion	-2797
▁husky	-2798
▁radio	-2799
▁dishes	-2800
▁drives	-2801
▁crochet	-2802
▁dollars	-2803
▁drawing	-2804
▁reminds	-2805
▁colorado	-2806
▁honestly	-2807
▁graduated	-2808
▁themselves	-2809
hic	-2810
▁11	-2811
▁16	-2812
▁Of	-2813
ucks	-2814
▁spo	-2815
arter	-2816
▁awww	-2817
▁beef	-2818
▁coll	-2819
▁cust	-2820
▁moms	-2821
▁sour	-2822
▁weak	-2823
▁creep	-2824
▁honey	-2825
▁sauce	-2826
▁thera	-2827
▁Please	-2828
▁buying	-2829
▁cooked	-2830
▁easier	-2831
▁issues	-2832
▁classic	-2833
▁finding	-2834
▁stopped	-2835
▁positive	-2836
▁restaurants	-2837
aps	-2838
▁21	-2839
▁si	-2840
irty	-2841
isbe	-2842
▁eye	-2843
▁gig	-2844
stery	-2845
▁cell	-2846
▁post	-2847
▁runs	-2848
▁Every	-2849
▁comed	-2850
▁eight	-2851
▁faith	-2852
▁honda	-2853
▁silly	-2854
▁trade	-2855
▁agreed	-2856
▁bakery	-2857
▁driver	-2858
▁grandp	-2859
▁island	-2860
▁record	-2861
▁rescue	-2862
▁sunday	-2863
▁twenty	-2864
iversary	-2865
▁charlie	-2866
▁covered	-2867
▁mustang	-2868
▁seattle	-2869
▁divorced	-2870
▁interests	-2871
▁activities	-2872
▁grandchild	-2873
▁anniversary	-2874
▁countryside	-2875
ka	-2876
ili	-2877
▁Al	-2878
▁ru	-2879
ains	-2880
care	-2881
gest	-2882
iled	-2883
uffy	-2884
vest	-2885
▁200	-2886
▁jer	-2887
▁Were	-2888
▁deep	-2889
▁iron	-2890
▁mech	-2891
▁prin	-2892
ourite	-2893
▁Somet	-2894
▁cards	-2895
▁coach	-2896
▁doubt	-2897
▁serve	-2898
▁museum	-2899
▁origin	-2900
▁sewing	-2901
▁farmers	-2902
▁popular	-2903
▁science	-2904
▁electric	-2905
▁position	-2906
▁education	-2907
▁excellent	-2908
▁favourite	-2909
app	-2910
ops	-2911
▁De	-2912
▁Ne	-2913
isbee	-2914
▁appl	-2915
▁bank	-2916
▁bass	-2917
▁dude	-2918
▁fill	-2919
▁nose	-2920
▁pigs	-2921
▁resp	-2922
▁soda	-2923
▁tiny	-2924
▁view	-2925
▁wall	-2926
▁crowd	-2927
▁heavy	-2928
▁trips	-2929
▁metall	-2930
▁oldest	-2931
▁spring	-2932
▁bedroom	-2933
▁connect	-2934
▁ordered	-2935
▁computers	-2936
▁seriously	-2937
isc	-2938
▁ce	-2939
aced	-2940
ards	-2941
idge	-2942
▁liz	-2943
▁toy	-2944
▁chan	-2945
▁dire	-2946
▁nood	-2947
▁quit	-2948
▁tuna	-2949
▁Those	-2950
▁airpl	-2951
▁choir	-2952
▁crash	-2953
▁deser	-2954
▁envir	-2955
▁minor	-2956
▁paris	-2957
▁became	-2958
▁fruits	-2959
▁mexico	-2960
▁public	-2961
▁biology	-2962
▁cartoon	-2963
▁frisbee	-2964
▁product	-2965
▁watched	-2966
▁worries	-2967
▁kayaking	-2968
▁Hopefully	-2969
▁metallica	-2970
▁thankfully	-2971
▁grandchildren	-2972
vy	-2973
oid	-2974
▁Me	-2975
ased	-2976
▁cir	-2977
▁fer	-2978
▁hat	-2979
▁inj	-2980
▁que	-2981
▁dist	-2982
▁incl	-2983
▁mart	-2984
▁requ	-2985
▁tons	-2986
▁writ	-2987
idence	-2988
▁medic	-2989
▁beauty	-2990
▁escape	-2991
▁fashion	-2992
▁keeping	-2993
▁machine	-2994
▁mystery	-2995
▁subject	-2996
▁creative	-2997
▁enjoying	-2998
gr	-2999
fish	-3000
iety	-3001
illa	-3002
oint	-3003
▁emb	-3004
▁var	-3005
▁corn	-3006
▁desk	-3007
▁priv	-3008
▁rush	-3009
▁situ	-3010
▁todd	-3011
▁yard	-3012
▁fault	-3013
▁owner	-3014
▁poker	-3015
▁price	-3016
▁reach	-3017
▁veter	-3018
▁voice	-3019
itional	-3020
▁advice	-3021
▁donate	-3022
▁incred	-3023
▁stores	-3024
▁applian	-3025
▁dropped	-3026
▁becoming	-3027
▁planning	-3028
▁speaking	-3029
▁supposed	-3030
▁talented	-3031
▁retriever	-3032
▁terrified	-3033
▁comfortable	-3034
gu	-3035
met	-3036
▁25	-3037
▁pi	-3038
mart	-3039
▁nie	-3040
ccess	-3041
ocked	-3042
▁buff	-3043
▁cele	-3044
▁loss	-3045
▁mile	-3046
▁path	-3047
▁phys	-3048
▁rece	-3049
▁rose	-3050
ousand	-3051
▁Sorry	-3052
▁bears	-3053
▁bikes	-3054
▁speed	-3055
▁upset	-3056
ination	-3057
▁across	-3058
▁charge	-3059
▁normal	-3060
▁turtle	-3061
▁biggest	-3062
▁leather	-3063
▁prepared	-3064
we	-3065
lor	-3066
uly	-3067
aves	-3068
ined	-3069
ites	-3070
ompl	-3071
▁Any	-3072
▁ben	-3073
▁den	-3074
▁jam	-3075
▁mur	-3076
▁odd	-3077
▁scr	-3078
urday	-3079
▁aren	-3080
▁calm	-3081
▁golf	-3082
▁knit	-3083
▁mall	-3084
▁navy	-3085
▁sold	-3086
▁Congr	-3087
▁chips	-3088
▁human	-3089
▁occas	-3090
▁quest	-3091
▁barely	-3092
▁custom	-3093
▁makeup	-3094
▁repair	-3095
▁stayed	-3096
▁divorce	-3097
▁fantasy	-3098
▁glasses	-3099
▁grandma	-3100
▁spanish	-3101
▁staying	-3102
▁clothing	-3103
▁goodness	-3104
▁musician	-3105
▁roommate	-3106
▁traveled	-3107
▁character	-3108
▁fantastic	-3109
uba	-3110
▁40	-3111
▁Ah	-3112
▁Ex	-3113
hear	-3114
ners	-3115
sych	-3116
▁ban	-3117
▁dig	-3118
▁mer	-3119
▁mut	-3120
▁Okay	-3121
▁fear	-3122
▁prov	-3123
▁punk	-3124
▁west	-3125
ertain	-3126
▁avoid	-3127
▁brain	-3128
▁habit	-3129
▁paper	-3130
▁psych	-3131
▁stuck	-3132
▁brings	-3133
▁bummer	-3134
▁drinks	-3135
▁environ	-3136
▁million	-3137
▁motorcy	-3138
▁skating	-3139
▁success	-3140
▁wheelch	-3141
▁graduate	-3142
▁obsessed	-3143
▁products	-3144
▁thousand	-3145
▁entertain	-3146
▁skydiving	-3147
▁accountant	-3148
ze	-3149
ana	-3150
bul	-3151
▁26	-3152
▁Mr	-3153
bers	-3154
cake	-3155
case	-3156
ured	-3157
▁fed	-3158
▁fle	-3159
▁squ	-3160
ansas	-3161
▁Nice	-3162
▁Will	-3163
▁boss	-3164
▁gosh	-3165
▁Right	-3166
▁curly	-3167
▁stray	-3168
▁trees	-3169
▁bigger	-3170
▁butter	-3171
▁ghosts	-3172
▁potato	-3173
▁pounds	-3174
▁attract	-3175
▁picture	-3176
▁shepher	-3177
▁teaches	-3178
▁involved	-3179
▁potatoes	-3180
▁neighbors	-3181
eps	-3182
imp	-3183
nes	-3184
par	-3185
▁As	-3186
▁er	-3187
bles	-3188
tles	-3189
▁Who	-3190
▁etc	-3191
▁ide	-3192
▁low	-3193
▁non	-3194
▁typ	-3195
▁yup	-3196
antly	-3197
▁cali	-3198
▁dont	-3199
▁earl	-3200
▁grey	-3201
▁none	-3202
▁wash	-3203
▁yuck	-3204
ergart	-3205
▁adore	-3206
▁cross	-3207
▁magic	-3208
▁tasty	-3209
▁touch	-3210
mentary	-3211
▁casino	-3212
▁celebr	-3213
▁pepper	-3214
▁salads	-3215
▁thrill	-3216
▁compete	-3217
▁manager	-3218
▁perform	-3219
▁precious	-3220
▁community	-3221
▁snowboarding	-3222
gn	-3223
cha	-3224
uss	-3225
uts	-3226
▁Sh	-3227
▁ep	-3228
aker	-3229
ergy	-3230
ghet	-3231
icks	-3232
inet	-3233
▁fif	-3234
▁kil	-3235
▁sam	-3236
▁spa	-3237
riger	-3238
▁Take	-3239
▁bear	-3240
▁pood	-3241
usting	-3242
vision	-3243
▁bless	-3244
▁boxes	-3245
▁cheer	-3246
▁nails	-3247
viously	-3248
▁bright	-3249
▁cattle	-3250
▁counts	-3251
▁energy	-3252
▁george	-3253
▁goalie	-3254
▁grands	-3255
▁harder	-3256
▁potter	-3257
▁united	-3258
▁anyways	-3259
▁musical	-3260
▁neither	-3261
▁private	-3262
▁pumpkin	-3263
▁replace	-3264
▁vanilla	-3265
rigerator	-3266
▁athletic	-3267
▁dressing	-3268
▁employed	-3269
▁shepherd	-3270
▁Sometimes	-3271
▁languages	-3272
▁librarian	-3273
▁environment	-3274
▁refrigerator	-3275
▁strawberries	-3276
che	-3277
fet	-3278
ium	-3279
▁23	-3280
igan	-3281
pped	-3282
▁201	-3283
▁lie	-3284
▁sem	-3285
▁uni	-3286
aster	-3287
omach	-3288
▁Does	-3289
▁fian	-3290
▁iced	-3291
▁port	-3292
▁prot	-3293
▁soul	-3294
▁teen	-3295
▁toys	-3296
▁actor	-3297
▁baker	-3298
▁medal	-3299
▁sales	-3300
▁sched	-3301
▁shoot	-3302
▁table	-3303
▁wears	-3304
▁caring	-3305
▁disapp	-3306
▁leaves	-3307
▁marath	-3308
▁pieces	-3309
▁contact	-3310
▁project	-3311
▁spaghet	-3312
▁stomach	-3313
▁occasion	-3314
▁impressed	-3315
▁elementary	-3316
We	-3317
no	-3318
yc	-3319
ume	-3320
▁80	-3321
▁To	-3322
hnic	-3323
ials	-3324
ifts	-3325
ilty	-3326
kids	-3327
noon	-3328
▁cab	-3329
▁max	-3330
▁ped	-3331
imate	-3332
pping	-3333
▁burn	-3334
▁jour	-3335
▁load	-3336
▁mist	-3337
▁poet	-3338
▁roof	-3339
▁rude	-3340
▁spir	-3341
▁wake	-3342
▁beard	-3343
▁boats	-3344
▁dirty	-3345
▁dolls	-3346
▁embar	-3347
▁grass	-3348
▁river	-3349
▁scuba	-3350
▁sorts	-3351
▁stink	-3352
▁truly	-3353
▁twins	-3354
▁vegas	-3355
▁affect	-3356
▁comics	-3357
▁ethnic	-3358
▁forest	-3359
▁gotten	-3360
▁income	-3361
▁nurses	-3362
▁therap	-3363
▁parties	-3364
▁quality	-3365
▁related	-3366
▁univers	-3367
▁bathroom	-3368
▁cupcakes	-3369
▁desserts	-3370
▁holidays	-3371
▁afternoon	-3372
▁grandkids	-3373
▁spaghetti	-3374
▁afterwards	-3375
▁wheelchair	-3376
ey	-3377
000	-3378
ale	-3379
nam	-3380
▁ef	-3381
bull	-3382
days	-3383
ikes	-3384
like	-3385
lley	-3386
ocks	-3387
rove	-3388
used	-3389
▁jew	-3390
▁pil	-3391
▁row	-3392
▁sen	-3393
▁tor	-3394
ouses	-3395
▁bout	-3396
▁john	-3397
▁king	-3398
▁sale	-3399
▁seas	-3400
▁ways	-3401
▁alive	-3402
▁daddy	-3403
▁indie	-3404
▁media	-3405
▁press	-3406
▁raise	-3407
▁youre	-3408
ichigan	-3409
▁author	-3410
▁easily	-3411
▁effect	-3412
▁fluffy	-3413
▁frustr	-3414
▁indust	-3415
▁manage	-3416
▁planes	-3417
cription	-3418
ergarten	-3419
▁candles	-3420
▁process	-3421
▁mechanic	-3422
▁favorites	-3423
▁interview	-3424
▁sweethear	-3425
▁appliances	-3426
▁competitions	-3427
▁neighborhood	-3428
nel	-3429
rew	-3430
▁Go	-3431
▁On	-3432
▁mc	-3433
erly	-3434
▁Hmm	-3435
▁equ	-3436
▁ooh	-3437
▁tay	-3438
avens	-3439
▁cuis	-3440
▁gymn	-3441
▁hats	-3442
▁note	-3443
▁rare	-3444
▁suck	-3445
mother	-3446
▁buddy	-3447
▁cloud	-3448
▁clubs	-3449
▁folks	-3450
▁homem	-3451
▁hurts	-3452
▁organ	-3453
▁schol	-3454
▁shirt	-3455
▁slice	-3456
▁disney	-3457
▁jumped	-3458
▁losing	-3459
▁poetry	-3460
▁taylor	-3461
▁burgers	-3462
▁colored	-3463
▁museums	-3464
▁noodles	-3465
▁officer	-3466
▁thrones	-3467
▁greatest	-3468
▁question	-3469
▁literally	-3470
▁situation	-3471
▁hamburgers	-3472
▁accidentally	-3473
rd	-3474
zz	-3475
und	-3476
unt	-3477
use	-3478
▁32	-3479
▁At	-3480
aska	-3481
cher	-3482
cked	-3483
eaks	-3484
medi	-3485
road	-3486
ware	-3487
▁Aww	-3488
▁def	-3489
▁dry	-3490
▁ore	-3491
ether	-3492
▁brit	-3493
▁disc	-3494
▁ferr	-3495
▁folk	-3496
▁yuan	-3497
arship	-3498
▁clock	-3499
▁dying	-3500
▁fixed	-3501
▁polit	-3502
▁snack	-3503
▁tight	-3504
omplish	-3505
▁action	-3506
▁compan	-3507
▁garlic	-3508
▁guilty	-3509
▁immedi	-3510
▁nights	-3511
▁paying	-3512
▁unique	-3513
▁earlier	-3514
▁explore	-3515
▁missing	-3516
▁organic	-3517
▁pitbull	-3518
▁protect	-3519
▁recipes	-3520
▁romance	-3521
▁somalia	-3522
▁sweater	-3523
▁language	-3524
▁university	-3525
▁scholarship	-3526
It	-3527
gy	-3528
ih	-3529
But	-3530
ern	-3531
ged	-3532
▁Im	-3533
▁ze	-3534
aked	-3535
anes	-3536
ches	-3537
erto	-3538
haha	-3539
▁Eng	-3540
▁due	-3541
▁mic	-3542
acked	-3543
antic	-3544
inger	-3545
▁caus	-3546
▁comb	-3547
▁coun	-3548
▁dads	-3549
▁fort	-3550
▁pray	-3551
▁rese	-3552
▁tack	-3553
▁wars	-3554
umbers	-3555
▁ahead	-3556
▁civic	-3557
▁farms	-3558
▁juice	-3559
▁relig	-3560
▁saved	-3561
▁sight	-3562
▁accept	-3563
▁acting	-3564
▁addict	-3565
▁assist	-3566
▁fiance	-3567
▁houses	-3568
▁missed	-3569
▁otherw	-3570
▁policy	-3571
▁puerto	-3572
▁senior	-3573
▁stable	-3574
▁anxiety	-3575
▁bowling	-3576
▁bubbles	-3577
▁feeding	-3578
▁weights	-3579
▁medicine	-3580
▁michigan	-3581
▁suitcase	-3582
▁thankful	-3583
▁visiting	-3584
▁adventure	-3585
▁childhood	-3586
▁accomplish	-3587
▁television	-3588
▁competitive	-3589
▁grandmother	-3590
de	-3591
eth	-3592
ief	-3593
oke	-3594
anda	-3595
cast	-3596
cles	-3597
hern	-3598
iced	-3599
▁Yep	-3600
▁awe	-3601
▁bye	-3602
▁cyc	-3603
▁dye	-3604
▁pow	-3605
▁tow	-3606
▁vir	-3607
▁vom	-3608
ascin	-3609
urity	-3610
▁anti	-3611
▁bell	-3612
▁bicy	-3613
▁bill	-3614
▁brat	-3615
▁cher	-3616
▁chew	-3617
▁fond	-3618
▁jump	-3619
▁pref	-3620
▁resc	-3621
▁russ	-3622
▁soci	-3623
▁sout	-3624
▁buses	-3625
▁carry	-3626
▁hurry	-3627
▁medit	-3628
▁parks	-3629
▁shell	-3630
▁types	-3631
▁altern	-3632
▁belong	-3633
▁desert	-3634
▁fascin	-3635
▁indian	-3636
▁nephew	-3637
▁virgin	-3638
▁volley	-3639
▁depress	-3640
▁fiction	-3641
▁gymnast	-3642
▁swimmer	-3643
▁walmart	-3644
▁pancakes	-3645
▁presents	-3646
▁scientist	-3647
▁vegetable	-3648
▁eventually	-3649
▁motorcycle	-3650
▁passionate	-3651
▁traditional	-3652
▁kindergarten	-3653
ik	-3654
▁x	-3655
bow	-3656
can	-3657
gar	-3658
oli	-3659
▁ol	-3660
iest	-3661
ises	-3662
reme	-3663
utor	-3664
▁ans	-3665
▁joy	-3666
eless	-3667
enses	-3668
iture	-3669
▁furn	-3670
▁junk	-3671
▁male	-3672
▁nuts	-3673
▁angry	-3674
▁bored	-3675
▁drunk	-3676
▁genre	-3677
▁labor	-3678
▁roast	-3679
▁track	-3680
▁trump	-3681
venient	-3682
▁circus	-3683
▁creepy	-3684
▁cruise	-3685
▁helmet	-3686
▁includ	-3687
▁invest	-3688
▁karate	-3689
▁matter	-3690
▁necess	-3691
▁smooth	-3692
▁crowded	-3693
▁however	-3694
▁reality	-3695
▁tickets	-3696
▁trained	-3697
▁romantic	-3698
▁security	-3699
▁basically	-3700
▁furniture	-3701
▁homeschool	-3702
▁technology	-3703
▁terrifying	-3704
You	-3705
con	-3706
erv	-3707
org	-3708
yal	-3709
▁Ab	-3710
▁An	-3711
▁Pe	-3712
cing	-3713
male	-3714
ndsc	-3715
▁adv	-3716
▁ble	-3717
▁hip	-3718
▁ing	-3719
▁opt	-3720
▁san	-3721
▁tap	-3722
ister	-3723
ution	-3724
▁crab	-3725
▁hmmm	-3726
▁legs	-3727
▁pair	-3728
▁poll	-3729
▁rail	-3730
▁spot	-3731
▁stir	-3732
▁whis	-3733
▁Could	-3734
▁These	-3735
▁bible	-3736
▁blame	-3737
▁champ	-3738
▁chevy	-3739
▁comic	-3740
▁craft	-3741
▁drove	-3742
▁given	-3743
▁harry	-3744
▁panda	-3745
▁spots	-3746
▁burger	-3747
▁female	-3748
▁grades	-3749
▁inform	-3750
▁kansas	-3751
▁landsc	-3752
▁onions	-3753
▁poodle	-3754
▁return	-3755
▁writer	-3756
▁convert	-3757
▁ferrari	-3758
▁fitness	-3759
▁players	-3760
▁serving	-3761
▁travell	-3762
▁national	-3763
▁virginia	-3764
▁weakness	-3765
▁attractive	-3766
▁constantly	-3767
▁incredible	-3768
▁sweetheart	-3769
▁understandable	-3770
to	-3771
ww	-3772
ahu	-3773
gle	-3774
ilt	-3775
ulf	-3776
uth	-3777
▁eh	-3778
aken	-3779
asty	-3780
avid	-3781
ison	-3782
▁cud	-3783
▁doc	-3784
▁fry	-3785
▁las	-3786
▁soo	-3787
▁val	-3788
itude	-3789
utter	-3790
▁arri	-3791
▁flav	-3792
▁mood	-3793
▁orch	-3794
▁toes	-3795
▁unus	-3796
verage	-3797
▁About	-3798
▁baked	-3799
▁brand	-3800
▁chill	-3801
▁court	-3802
▁herbs	-3803
▁magaz	-3804
▁mater	-3805
▁pilot	-3806
▁prote	-3807
▁queen	-3808
▁robot	-3809
▁sadly	-3810
▁shall	-3811
▁shark	-3812
▁shiny	-3813
▁tooth	-3814
▁turns	-3815
▁tutor	-3816
▁People	-3817
▁asleep	-3818
▁broken	-3819
▁commer	-3820
▁faster	-3821
▁recept	-3822
▁steaks	-3823
▁stones	-3824
▁subway	-3825
▁worker	-3826
▁allowed	-3827
▁athlete	-3828
▁dentist	-3829
▁deserve	-3830
▁hearing	-3831
▁rainbow	-3832
▁regular	-3833
▁various	-3834
▁winning	-3835
▁contract	-3836
▁homeless	-3837
▁homemade	-3838
▁physical	-3839
▁research	-3840
adm	-3841
arm	-3842
min	-3843
occ	-3844
ral	-3845
rib	-3846
sey	-3847
tor	-3848
wai	-3849
wan	-3850
▁ev	-3851
▁oo	-3852
They	-3853
alth	-3854
ucky	-3855
yard	-3856
▁dea	-3857
▁lic	-3858
▁sex	-3859
▁shr	-3860
▁shy	-3861
▁tim	-3862
▁ven	-3863
ences	-3864
ental	-3865
iding	-3866
ilies	-3867
▁damn	-3868
▁deli	-3869
▁rico	-3870
▁taco	-3871
occoli	-3872
▁ideas	-3873
▁loyal	-3874
▁skill	-3875
▁wrote	-3876
▁blocks	-3877
▁bottle	-3878
▁cowork	-3879
▁create	-3880
▁embarr	-3881
▁employ	-3882
▁france	-3883
▁humans	-3884
▁messed	-3885
▁opport	-3886
▁showed	-3887
▁skills	-3888
ointment	-3889
ustralia	-3890
▁Chinese	-3891
▁Someone	-3892
▁chinese	-3893
▁grandpa	-3894
▁holiday	-3895
▁mention	-3896
▁olympic	-3897
▁outdoor	-3898
▁provide	-3899
▁respons	-3900
▁shocked	-3901
▁broccoli	-3902
▁personal	-3903
▁pleasant	-3904
▁southern	-3905
▁assistant	-3906
▁department	-3907
▁volleyball	-3908
▁immediately	-3909
▁presentation	-3910
▁volunteering	-3911
▁professionally	-3912
bl	-3913
den	-3914
ihu	-3915
oop	-3916
▁24	-3917
▁lu	-3918
▁om	-3919
ache	-3920
ency	-3921
life	-3922
orea	-3923
reek	-3924
roll	-3925
waii	-3926
▁Per	-3927
▁aqu	-3928
▁ari	-3929
▁bug	-3930
▁lad	-3931
▁nap	-3932
▁tar	-3933
abama	-3934
ering	-3935
ppers	-3936
▁ange	-3937
▁arts	-3938
▁bags	-3939
▁mutt	-3940
▁oops	-3941
▁push	-3942
▁ring	-3943
▁scen	-3944
▁tres	-3945
ihuahu	-3946
▁balls	-3947
▁equip	-3948
▁korea	-3949
▁leche	-3950
▁nasty	-3951
▁sells	-3952
▁sunny	-3953
▁threw	-3954
▁beside	-3955
▁direct	-3956
▁gotcha	-3957
▁inspir	-3958
▁specif	-3959
▁sunset	-3960
▁taller	-3961
▁treadm	-3962
▁alabama	-3963
▁convers	-3964
▁drummer	-3965
▁leaving	-3966
▁nephews	-3967
▁partner	-3968
▁prepare	-3969
▁recover	-3970
▁wearing	-3971
▁cartoons	-3972
▁facebook	-3973
▁princess	-3974
▁saturday	-3975
▁airplanes	-3976
▁necessary	-3977
▁obviously	-3978
▁Definitely	-3979
▁adventures	-3980
▁decorating	-3981
▁information	-3982
▁prescription	-3983
▁specifically	-3984
Th	-3985
ae	-3986
old	-3987
ule	-3988
uty	-3989
zen	-3990
▁LO	-3991
cipl	-3992
ists	-3993
rect	-3994
▁Our	-3995
▁dem	-3996
▁jud	-3997
▁mir	-3998
▁sar	-3999
▁tem	-4000
▁ult	-4001
▁unc	-4002
otion	-4003
velop	-4004
▁answ	-4005
▁cock	-4006
▁cous	-4007
▁deaf	-4008
▁duty	-4009
▁gain	-4010
▁keys	-4011
▁labs	-4012
▁lord	-4013
▁pean	-4014
▁pony	-4015
asters	-4016
▁docum	-4017
▁fried	-4018
▁picky	-4019
▁smile	-4020
▁weren	-4021
cipline	-4022
▁alaska	-4023
▁aquari	-4024
▁decide	-4025
▁double	-4026
▁events	-4027
▁garage	-4028
▁introd	-4029
▁lizard	-4030
▁recipe	-4031
▁	-4032
e	-4033
o	-4034
t	-4035
a	-4036
i	-4037
s	-4038
n	-4039
r	-4040
h	-4041
l	-4042
d	-4043
y	-4044
u	-4045
m	-4046
g	-4047
c	-4048
w	-4049
.	-4050
f	-4051
b	-4052
p	-4053
k	-4054
v	-4055
,	-4056
?	-4057
!	-4058
I	-4059
j	-4060
'	-4061
x	-4062
T	-4063
z	-4064
W	-4065
Y	-4066
H	-4067
A	-4068
S	-4069
M	-4070
O	-4071
’	-4072
0	-4073
2	-4074
1	-4075
q	-4076
D	-4077
3	-4078
N	-4079
C	-4080
B	-4081
5	-4082
-	-4083
4	-4084
6	-4085
L	-4086
G	-4087
P	-4088
9	-4089
R	-4090
8	-4091
E	-4092
